{
  "version": "1.0",
  "truncation": null,
  "padding": null,
  "added_tokens": [
    {
      "id": 0,
      "content": "[PAD]",
      "single_word": false,
      "lstrip": false,
      "rstrip": false,
      "normalized": false,
      "special": true
    },
    {
      "id": 1,
      "content": "[UNK]",
      "single_word": false,
      "lstrip": false,
      "rstrip": false,
      "normalized": false,
      "special": true
    },
    {
      "id": 2,
      "content": "[CLS]",
      "single_word": false,
      "lstrip": false,
      "rstrip": false,
      "normalized": false,
      "special": true
    },
    {
      "id": 3,
      "content": "[SEP]",
      "single_word": false,
      "lstrip": false,
      "rstrip": false,
      "normalized": false,
      "special": true
    },
    {
      "id": 4,
      "content": "[MASK]",
      "single_word": false,
      "lstrip": false,
      "rstrip": false,
      "normalized": false,
      "special": true
    }
  ],
  "normalizer": {
    "type": "Sequence",
    "normalizers": [
      {
        "type": "Replace",
        "pattern": {
          "Regex": "(``|'')"
        },
        "content": "\""
      },
      {
        "type": "NFD"
      },
      {
        "type": "Lowercase"
      },
      {
        "type": "StripAccents"
      },
      {
        "type": "Replace",
        "pattern": {
          "Regex": " {2,}"
        },
        "content": " "
      },
      {
        "type": "Replace",
        "pattern": {
          "Regex": "[^\\x00-\\x7F]+"
        },
        "content": ""
      }
    ]
  },
  "pre_tokenizer": {
    "type": "BertPreTokenizer"
  },
  "post_processor": null,
  "decoder": {
    "type": "WordPiece",
    "prefix": "##",
    "cleanup": true
  },
  "model": {
    "type": "WordPiece",
    "unk_token": "[UNK]",
    "continuing_subword_prefix": "##",
    "max_input_chars_per_word": 100,
    "vocab": {
      "[PAD]": 0,
      "[UNK]": 1,
      "[CLS]": 2,
      "[SEP]": 3,
      "[MASK]": 4,
      "!": 5,
      "\"": 6,
      "#": 7,
      "$": 8,
      "%": 9,
      "&": 10,
      "'": 11,
      "(": 12,
      ")": 13,
      "*": 14,
      "+": 15,
      ",": 16,
      "-": 17,
      ".": 18,
      "/": 19,
      "0": 20,
      "1": 21,
      "2": 22,
      "3": 23,
      "4": 24,
      "5": 25,
      "6": 26,
      "7": 27,
      "8": 28,
      "9": 29,
      ":": 30,
      ";": 31,
      "<": 32,
      "=": 33,
      ">": 34,
      "?": 35,
      "@": 36,
      "[": 37,
      "\\": 38,
      "]": 39,
      "^": 40,
      "_": 41,
      "`": 42,
      "a": 43,
      "b": 44,
      "c": 45,
      "d": 46,
      "e": 47,
      "f": 48,
      "g": 49,
      "h": 50,
      "i": 51,
      "j": 52,
      "k": 53,
      "l": 54,
      "m": 55,
      "n": 56,
      "o": 57,
      "p": 58,
      "q": 59,
      "r": 60,
      "s": 61,
      "t": 62,
      "u": 63,
      "v": 64,
      "w": 65,
      "x": 66,
      "y": 67,
      "z": 68,
      "{": 69,
      "|": 70,
      "}": 71,
      "~": 72,
      "##e": 73,
      "##c": 74,
      "##r": 75,
      "##o": 76,
      "##m": 77,
      "##a": 78,
      "##t": 79,
      "##n": 80,
      "##u": 81,
      "##2": 82,
      "##5": 83,
      "##8": 84,
      "##9": 85,
      "##i": 86,
      "##b": 87,
      "##l": 88,
      "##f": 89,
      "##d": 90,
      "##h": 91,
      "##s": 92,
      "##g": 93,
      "##k": 94,
      "##v": 95,
      "##y": 96,
      "##p": 97,
      "##3": 98,
      "##z": 99,
      "##w": 100,
      "##4": 101,
      "##0": 102,
      "##1": 103,
      "##6": 104,
      "##x": 105,
      "##7": 106,
      "##j": 107,
      "##q": 108,
      "##he": 109,
      "##er": 110,
      "the": 111,
      "##in": 112,
      "##on": 113,
      "##ed": 114,
      "##nd": 115,
      "##or": 116,
      "##at": 117,
      "##es": 118,
      "##en": 119,
      "##an": 120,
      "##ar": 121,
      "in": 122,
      "##al": 123,
      "of": 124,
      "##is": 125,
      "##ing": 126,
      "##it": 127,
      "##ou": 128,
      "##as": 129,
      "and": 130,
      "to": 131,
      "##ic": 132,
      "##re": 133,
      "##ion": 134,
      "##om": 135,
      "##il": 136,
      "##el": 137,
      "th": 138,
      "##ent": 139,
      "##le": 140,
      "##st": 141,
      "##am": 142,
      "##ad": 143,
      "##ac": 144,
      "##ol": 145,
      "##et": 146,
      "##ec": 147,
      "st": 148,
      "##ur": 149,
      "##ot": 150,
      "was": 151,
      "on": 152,
      "##id": 153,
      "##ir": 154,
      "##ow": 155,
      "for": 156,
      "##ig": 157,
      "##ut": 158,
      "he": 159,
      "##ay": 160,
      "##ly": 161,
      "##iv": 162,
      "as": 163,
      "re": 164,
      "##ter": 165,
      "al": 166,
      "pr": 167,
      "##im": 168,
      "is": 169,
      "##ation": 170,
      "19": 171,
      "##ers": 172,
      "be": 173,
      "it": 174,
      "##ith": 175,
      "##ch": 176,
      "wh": 177,
      "fr": 178,
      "an": 179,
      "with": 180,
      "##em": 181,
      "20": 182,
      "##us": 183,
      "at": 184,
      "##os": 185,
      "that": 186,
      "##ist": 187,
      "ch": 188,
      "##op": 189,
      "##ul": 190,
      "##and": 191,
      "##th": 192,
      "##ce": 193,
      "##ver": 194,
      "##od": 195,
      "##ag": 196,
      "##her": 197,
      "##ct": 198,
      "##av": 199,
      "con": 200,
      "by": 201,
      "his": 202,
      "com": 203,
      "##um": 204,
      "##ain": 205,
      "##est": 206,
      "you": 207,
      "se": 208,
      "##un": 209,
      "##ess": 210,
      "##ld": 211,
      "##oc": 212,
      "from": 213,
      "##ap": 214,
      "de": 215,
      "ne": 216,
      "##igh": 217,
      "her": 218,
      "tr": 219,
      "##ill": 220,
      "##ab": 221,
      "##all": 222,
      "##ak": 223,
      "##if": 224,
      "ar": 225,
      "un": 226,
      "##ov": 227,
      "sh": 228,
      "pl": 229,
      "##art": 230,
      "le": 231,
      "or": 232,
      "##ip": 233,
      "ex": 234,
      "su": 235,
      "##ian": 236,
      "##ity": 237,
      "##ies": 238,
      "she": 239,
      "##ate": 240,
      "##ard": 241,
      "##ber": 242,
      "##ant": 243,
      "sp": 244,
      "##ort": 245,
      "##ia": 246,
      "##se": 247,
      "br": 248,
      "##ud": 249,
      "##ight": 250,
      "##gh": 251,
      "##ie": 252,
      "##ok": 253,
      "##ack": 254,
      "cou": 255,
      "not": 256,
      "are": 257,
      "##ell": 258,
      "##ust": 259,
      "##ich": 260,
      "en": 261,
      "had": 262,
      "##ore": 263,
      "gr": 264,
      "##ge": 265,
      "##ive": 266,
      "##og": 267,
      "##ear": 268,
      "##ect": 269,
      "201": 270,
      "wor": 271,
      "##ere": 272,
      "##ound": 273,
      "##ated": 274,
      "##ast": 275,
      "cl": 276,
      "##ave": 277,
      "##ary": 278,
      "but": 279,
      "##pp": 280,
      "##ong": 281,
      "this": 282,
      "me": 283,
      "200": 284,
      "am": 285,
      "were": 286,
      "whe": 287,
      "##our": 288,
      "##ial": 289,
      "we": 290,
      "##ment": 291,
      "##ue": 292,
      "##ish": 293,
      "##ame": 294,
      "##ine": 295,
      "##ib": 296,
      "##ough": 297,
      "##fer": 298,
      "##ost": 299,
      "go": 300,
      "ab": 301,
      "##out": 302,
      "af": 303,
      "comp": 304,
      "they": 305,
      "all": 306,
      "##ome": 307,
      "##ub": 308,
      "18": 309,
      "man": 310,
      "mar": 311,
      "##ions": 312,
      "which": 313,
      "##ous": 314,
      "##so": 315,
      "##ik": 316,
      "sc": 317,
      "have": 318,
      "##own": 319,
      "ad": 320,
      "##ord": 321,
      "int": 322,
      "one": 323,
      "##ical": 324,
      "##ign": 325,
      "##pt": 326,
      "also": 327,
      "new": 328,
      "out": 329,
      "##hed": 330,
      "##ces": 331,
      "cr": 332,
      "him": 333,
      "##ure": 334,
      "##age": 335,
      "ac": 336,
      "##uc": 337,
      "##ass": 338,
      "res": 339,
      "up": 340,
      "##ould": 341,
      "fir": 342,
      "do": 343,
      "rec": 344,
      "##qu": 345,
      "their": 346,
      "can": 347,
      "col": 348,
      "##ide": 349,
      "##nt": 350,
      "##ks": 351,
      "##ook": 352,
      "##ther": 353,
      "##iz": 354,
      "kn": 355,
      "##ire": 356,
      "##tern": 357,
      "ser": 358,
      "fe": 359,
      "ro": 360,
      "ag": 361,
      "##ace": 362,
      "##ond": 363,
      "my": 364,
      "##ice": 365,
      "tim": 366,
      "##aw": 367,
      "car": 368,
      "who": 369,
      "part": 370,
      "play": 371,
      "##ang": 372,
      "##ry": 373,
      "inc": 374,
      "us": 375,
      "first": 376,
      "##one": 377,
      "##ans": 378,
      "tw": 379,
      "so": 380,
      "dr": 381,
      "##ied": 382,
      "comm": 383,
      "##mp": 384,
      "pe": 385,
      "cont": 386,
      "##ind": 387,
      "has": 388,
      "te": 389,
      "##ence": 390,
      "year": 391,
      "##ach": 392,
      "##ember": 393,
      "after": 394,
      "##ally": 395,
      "there": 396,
      "##man": 397,
      "##act": 398,
      "##ory": 399,
      "##per": 400,
      "per": 401,
      "co": 402,
      "sa": 403,
      "bl": 404,
      "its": 405,
      "ev": 406,
      "##orn": 407,
      "off": 408,
      "##ations": 409,
      "other": 410,
      "bec": 411,
      "##amp": 412,
      "app": 413,
      "no": 414,
      "cent": 415,
      "would": 416,
      "##ult": 417,
      "##ite": 418,
      "over": 419,
      "when": 420,
      "rel": 421,
      "##ater": 422,
      "##ath": 423,
      "##itt": 424,
      "##ict": 425,
      "199": 426,
      "##ens": 427,
      "ind": 428,
      "##ose": 429,
      "jo": 430,
      "##ff": 431,
      "##ican": 432,
      "sch": 433,
      "fil": 434,
      "##pr": 435,
      "##ree": 436,
      "##ational": 437,
      "##ition": 438,
      "time": 439,
      "##ild": 440,
      "des": 441,
      "##ail": 442,
      "two": 443,
      "fl": 444,
      "str": 445,
      "##ug": 446,
      "into": 447,
      "qu": 448,
      "##ance": 449,
      "##land": 450,
      "##ences": 451,
      "##ile": 452,
      "##ction": 453,
      "##way": 454,
      "refer": 455,
      "pro": 456,
      "##nder": 457,
      "##ely": 458,
      "dis": 459,
      "##ms": 460,
      "##ick": 461,
      "##ake": 462,
      "amer": 463,
      "##les": 464,
      "been": 465,
      "##ople": 466,
      "will": 467,
      "##ool": 468,
      "what": 469,
      "par": 470,
      "##ade": 471,
      "dec": 472,
      "back": 473,
      "##00": 474,
      "##int": 475,
      "##oll": 476,
      "ph": 477,
      "##ents": 478,
      "ed": 479,
      "##ings": 480,
      "sec": 481,
      "pre": 482,
      "##ward": 483,
      "##ates": 484,
      "some": 485,
      "##end": 486,
      "##oss": 487,
      "##able": 488,
      "about": 489,
      "##ike": 490,
      "##ited": 491,
      "##ah": 492,
      "##urn": 493,
      "##ro": 494,
      "##lud": 495,
      "more": 496,
      "##iss": 497,
      "##ey": 498,
      "people": 499,
      "ass": 500,
      "##wn": 501,
      "##ft": 502,
      "##ors": 503,
      "reg": 504,
      "them": 505,
      "##ase": 506,
      "then": 507,
      "mus": 508,
      "##ivers": 509,
      "##old": 510,
      "may": 511,
      "how": 512,
      "##ra": 513,
      "nor": 514,
      "act": 515,
      "wr": 516,
      "pol": 517,
      "##ep": 518,
      "##ock": 519,
      "ear": 520,
      "##for": 521,
      "references": 522,
      "bo": 523,
      "count": 524,
      "##ood": 525,
      "bu": 526,
      "198": 527,
      "includ": 528,
      "did": 529,
      "##other": 530,
      "school": 531,
      "##ubl": 532,
      "gre": 533,
      "##hip": 534,
      "under": 535,
      "##hn": 536,
      "##pl": 537,
      "##uring": 538,
      "##we": 539,
      "##ason": 540,
      "gu": 541,
      "##eld": 542,
      "thr": 543,
      "again": 544,
      "form": 545,
      "fin": 546,
      "work": 547,
      "ele": 548,
      "if": 549,
      "american": 550,
      "sm": 551,
      "said": 552,
      "##ogr": 553,
      "min": 554,
      "##oot": 555,
      "only": 556,
      "gen": 557,
      "##au": 558,
      "##ased": 559,
      "art": 560,
      "##ious": 561,
      "att": 562,
      "any": 563,
      "just": 564,
      "eng": 565,
      "##ball": 566,
      "lin": 567,
      "197": 568,
      "##az": 569,
      "acc": 570,
      "##ru": 571,
      "see": 572,
      "war": 573,
      "##ife": 574,
      "##io": 575,
      "could": 576,
      "where": 577,
      "bet": 578,
      "cons": 579,
      "hist": 580,
      "like": 581,
      "##air": 582,
      "##fore": 583,
      "##ics": 584,
      "serv": 585,
      "world": 586,
      "than": 587,
      "univers": 588,
      "##gan": 589,
      "inter": 590,
      "##als": 591,
      "##aus": 592,
      "your": 593,
      "po": 594,
      "##pen": 595,
      "##ix": 596,
      "##ily": 597,
      "##ons": 598,
      "ever": 599,
      "##oth": 600,
      "imp": 601,
      "right": 602,
      "dist": 603,
      "sy": 604,
      "pres": 605,
      "##anc": 606,
      "rem": 607,
      "##vel": 608,
      "publ": 609,
      "most": 610,
      "through": 611,
      "before": 612,
      "stud": 613,
      "##let": 614,
      "##olog": 615,
      "##led": 616,
      "look": 617,
      "day": 618,
      "loc": 619,
      "##ert": 620,
      "##elf": 621,
      "during": 622,
      "##ished": 623,
      "##cc": 624,
      "##outh": 625,
      "id": 626,
      "prod": 627,
      "sl": 628,
      "196": 629,
      "##ont": 630,
      "char": 631,
      "##ery": 632,
      "##ett": 633,
      "down": 634,
      "##ove": 635,
      "##ince": 636,
      "found": 637,
      "now": 638,
      "##ouse": 639,
      "ret": 640,
      "inst": 641,
      "##ked": 642,
      "know": 643,
      "state": 644,
      "foot": 645,
      "high": 646,
      "##hes": 647,
      "colle": 648,
      "ma": 649,
      "years": 650,
      "university": 651,
      "end": 652,
      "fam": 653,
      "call": 654,
      "well": 655,
      "##ury": 656,
      "##ann": 657,
      "##hing": 658,
      "##ier": 659,
      "made": 660,
      "##ton": 661,
      "##ision": 662,
      "##ames": 663,
      "air": 664,
      "el": 665,
      "second": 666,
      "##ale": 667,
      "season": 668,
      "10": 669,
      "17": 670,
      "sur": 671,
      "hand": 672,
      "national": 673,
      "sing": 674,
      "ter": 675,
      "##ather": 676,
      "team": 677,
      "195": 678,
      "city": 679,
      "##son": 680,
      "##ating": 681,
      "##oup": 682,
      "head": 683,
      "united": 684,
      "sub": 685,
      "##ral": 686,
      "three": 687,
      "film": 688,
      "dire": 689,
      "##ollow": 690,
      "don": 691,
      "bel": 692,
      "med": 693,
      "##ular": 694,
      "record": 695,
      "trans": 696,
      "##att": 697,
      "194": 698,
      "while": 699,
      "pop": 700,
      "##form": 701,
      "win": 702,
      "follow": 703,
      "rep": 704,
      "def": 705,
      "##up": 706,
      "##sp": 707,
      "##ve": 708,
      "##iving": 709,
      "group": 710,
      "cap": 711,
      "##gr": 712,
      "##ters": 713,
      "##ists": 714,
      "met": 715,
      "gener": 716,
      "##iet": 717,
      "##ork": 718,
      "##enn": 719,
      "being": 720,
      "##emb": 721,
      "##ement": 722,
      "spec": 723,
      "cre": 724,
      "later": 725,
      "12": 726,
      "wom": 727,
      "open": 728,
      "##rib": 729,
      "life": 730,
      "alb": 731,
      "house": 732,
      "long": 733,
      "##are": 734,
      "gl": 735,
      "##ual": 736,
      "prov": 737,
      "##ative": 738,
      "football": 739,
      "north": 740,
      "south": 741,
      "##ink": 742,
      "pers": 743,
      "la": 744,
      "inv": 745,
      "em": 746,
      "##ped": 747,
      "john": 748,
      "bir": 749,
      "16": 750,
      "num": 751,
      "##ount": 752,
      "born": 753,
      "though": 754,
      "##ities": 755,
      "##ween": 756,
      "mov": 757,
      "mu": 758,
      "##ternal": 759,
      "est": 760,
      "##vern": 761,
      "own": 762,
      "way": 763,
      "##ank": 764,
      "mon": 765,
      "these": 766,
      "##enc": 767,
      "such": 768,
      "want": 769,
      "##ina": 770,
      "every": 771,
      "between": 772,
      "care": 773,
      "states": 774,
      "sw": 775,
      "rele": 776,
      "bar": 777,
      "##ise": 778,
      "##ower": 779,
      "supp": 780,
      "##ys": 781,
      "##aph": 782,
      "lar": 783,
      "music": 784,
      "##ful": 785,
      "##ob": 786,
      "arm": 787,
      "ge": 788,
      "##ph": 789,
      "##ause": 790,
      "direct": 791,
      "both": 792,
      "get": 793,
      "soc": 794,
      "##ield": 795,
      "start": 796,
      "govern": 797,
      "##oy": 798,
      "##der": 799,
      "##ional": 800,
      "list": 801,
      "##ning": 802,
      "lead": 803,
      "song": 804,
      "##ject": 805,
      "dep": 806,
      "##ri": 807,
      "ann": 808,
      "har": 809,
      "ob": 810,
      "193": 811,
      "jun": 812,
      "against": 813,
      "external": 814,
      "##ull": 815,
      "##ific": 816,
      "used": 817,
      "champ": 818,
      "bre": 819,
      "book": 820,
      "cur": 821,
      "mat": 822,
      "##ott": 823,
      "four": 824,
      "left": 825,
      "even": 826,
      "sk": 827,
      "##ident": 828,
      "compan": 829,
      "players": 830,
      "##omet": 831,
      "death": 832,
      "mod": 833,
      "##xt": 834,
      "links": 835,
      "##uct": 836,
      "say": 837,
      "##ague": 838,
      "show": 839,
      "many": 840,
      "add": 841,
      "##iam": 842,
      "##lish": 843,
      "chr": 844,
      "##iver": 845,
      "nov": 846,
      "##ins": 847,
      "##til": 848,
      "##ope": 849,
      "history": 850,
      "che": 851,
      "around": 852,
      "century": 853,
      "county": 854,
      "album": 855,
      "##ty": 856,
      "cour": 857,
      "##ric": 858,
      "build": 859,
      "15": 860,
      "##red": 861,
      "11": 862,
      "became": 863,
      "ke": 864,
      "##aking": 865,
      "commun": 866,
      "old": 867,
      "##ior": 868,
      "##atur": 869,
      "##els": 870,
      "offic": 871,
      "##ese": 872,
      "series": 873,
      "known": 874,
      "ger": 875,
      "##ever": 876,
      "##its": 877,
      "need": 878,
      "##ene": 879,
      "202": 880,
      "##ele": 881,
      "##ley": 882,
      "mil": 883,
      "wal": 884,
      "align": 885,
      "club": 886,
      "intern": 887,
      "##ived": 888,
      "main": 889,
      "sim": 890,
      "##ner": 891,
      "##eng": 892,
      "exp": 893,
      "family": 894,
      "cor": 895,
      "192": 896,
      "const": 897,
      "dem": 898,
      "child": 899,
      "elect": 900,
      "##co": 901,
      "##ained": 902,
      "because": 903,
      "since": 904,
      "##ern": 905,
      "league": 906,
      "good": 907,
      "jan": 908,
      "place": 909,
      "##ister": 910,
      "rev": 911,
      "town": 912,
      "##ths": 913,
      "##ism": 914,
      "red": 915,
      "sign": 916,
      "ste": 917,
      "hel": 918,
      "##uck": 919,
      "prof": 920,
      "dif": 921,
      "oper": 922,
      "im": 923,
      "until": 924,
      "##19": 925,
      "##augh": 926,
      "aut": 927,
      "law": 928,
      "##yp": 929,
      "point": 930,
      "contr": 931,
      "including": 932,
      "turn": 933,
      "##nc": 934,
      "##ually": 935,
      "##ently": 936,
      "much": 937,
      "##0s": 938,
      "early": 939,
      "person": 940,
      "films": 941,
      "13": 942,
      "name": 943,
      "award": 944,
      "public": 945,
      "run": 946,
      "polit": 947,
      "##ash": 948,
      "##side": 949,
      "home": 950,
      "land": 951,
      "##velop": 952,
      "sever": 953,
      "##ai": 954,
      "div": 955,
      "##ee": 956,
      "##ograph": 957,
      "king": 958,
      "##ts": 959,
      "##ange": 960,
      "orig": 961,
      "##rict": 962,
      "##ized": 963,
      "west": 964,
      "appear": 965,
      "cal": 966,
      "tre": 967,
      "class": 968,
      "number": 969,
      "aust": 970,
      "hum": 971,
      "our": 972,
      "took": 973,
      "still": 974,
      "aug": 975,
      "somet": 976,
      "var": 977,
      "##ets": 978,
      "develop": 979,
      "14": 980,
      "##ble": 981,
      "ey": 982,
      "pass": 983,
      "##ourn": 984,
      "called": 985,
      "##min": 986,
      "champions": 987,
      "##urch": 988,
      "##iew": 989,
      "##inc": 990,
      "prop": 991,
      "miss": 992,
      "star": 993,
      "rece": 994,
      "##ute": 995,
      "##amed": 996,
      "ju": 997,
      "conc": 998,
      "however": 999,
      "each": 1000,
      "##ives": 1001,
      "origin": 1002,
      "contin": 1003,
      "pat": 1004,
      "##ew": 1005,
      "stre": 1006,
      "ext": 1007,
      "won": 1008,
      "august": 1009,
      "oct": 1010,
      "##osed": 1011,
      "women": 1012,
      "career": 1013,
      "av": 1014,
      "another": 1015,
      "bus": 1016,
      "ve": 1017,
      "##ae": 1018,
      "##ote": 1019,
      "##ians": 1020,
      "great": 1021,
      "here": 1022,
      "should": 1023,
      "several": 1024,
      "god": 1025,
      "##und": 1026,
      "living": 1027,
      "port": 1028,
      "ang": 1029,
      "international": 1030,
      "##stem": 1031,
      "make": 1032,
      "organ": 1033,
      "det": 1034,
      "brit": 1035,
      "##ology": 1036,
      "return": 1037,
      "let": 1038,
      "last": 1039,
      "same": 1040,
      "##get": 1041,
      "near": 1042,
      "ep": 1043,
      "val": 1044,
      "##ark": 1045,
      "district": 1046,
      "german": 1047,
      "##ution": 1048,
      "##ible": 1049,
      "government": 1050,
      "##br": 1051,
      "##ady": 1052,
      "##uss": 1053,
      "small": 1054,
      "##ient": 1055,
      "real": 1056,
      "resp": 1057,
      "##ling": 1058,
      "best": 1059,
      "ra": 1060,
      "##hen": 1061,
      "##ered": 1062,
      "##ying": 1063,
      "those": 1064,
      "area": 1065,
      "march": 1066,
      "following": 1067,
      "litt": 1068,
      "##erv": 1069,
      "system": 1070,
      "general": 1071,
      "##self": 1072,
      "educ": 1073,
      "college": 1074,
      "bas": 1075,
      "progr": 1076,
      "##ised": 1077,
      "##ime": 1078,
      "york": 1079,
      "##yl": 1080,
      "##erg": 1081,
      "desc": 1082,
      "design": 1083,
      "eff": 1084,
      "##ek": 1085,
      "191": 1086,
      "little": 1087,
      "former": 1088,
      "##ress": 1089,
      "##lin": 1090,
      "going": 1091,
      "rest": 1092,
      "##ng": 1093,
      "##uary": 1094,
      "##ided": 1095,
      "##ains": 1096,
      "estab": 1097,
      "company": 1098,
      "men": 1099,
      "memb": 1100,
      "road": 1101,
      "take": 1102,
      "sept": 1103,
      "result": 1104,
      "eur": 1105,
      "son": 1106,
      "sen": 1107,
      "##ody": 1108,
      "december": 1109,
      "##ober": 1110,
      "leg": 1111,
      "##ica": 1112,
      "away": 1113,
      "very": 1114,
      "emp": 1115,
      "far": 1116,
      "games": 1117,
      "##sc": 1118,
      "##ren": 1119,
      "##fl": 1120,
      "thir": 1121,
      "arr": 1122,
      "##ants": 1123,
      "september": 1124,
      "mid": 1125,
      "mill": 1126,
      "##cept": 1127,
      "didn": 1128,
      "partic": 1129,
      "use": 1130,
      "think": 1131,
      "##ung": 1132,
      "##aving": 1133,
      "october": 1134,
      "camp": 1135,
      "members": 1136,
      "##ane": 1137,
      "##mer": 1138,
      "##iter": 1139,
      "released": 1140,
      "del": 1141,
      "maj": 1142,
      "jap": 1143,
      "tal": 1144,
      "##ax": 1145,
      "##ience": 1146,
      "##ages": 1147,
      "played": 1148,
      "black": 1149,
      "##ched": 1150,
      "along": 1151,
      "##by": 1152,
      "##ments": 1153,
      "##ulation": 1154,
      "##aining": 1155,
      "arch": 1156,
      "championship": 1157,
      "mag": 1158,
      "manag": 1159,
      "apr": 1160,
      "mount": 1161,
      "##ilt": 1162,
      "##iend": 1163,
      "adv": 1164,
      "based": 1165,
      "##ron": 1166,
      "stand": 1167,
      "##ired": 1168,
      "prom": 1169,
      "##day": 1170,
      "##oci": 1171,
      "english": 1172,
      "east": 1173,
      "vill": 1174,
      "ent": 1175,
      "profess": 1176,
      "tit": 1177,
      "##ench": 1178,
      "##ator": 1179,
      "set": 1180,
      "track": 1181,
      "order": 1182,
      "##bert": 1183,
      "pa": 1184,
      "##ret": 1185,
      "histor": 1186,
      "christ": 1187,
      "came": 1188,
      "band": 1189,
      "held": 1190,
      "began": 1191,
      "associ": 1192,
      "japan": 1193,
      "ll": 1194,
      "never": 1195,
      "austral": 1196,
      "power": 1197,
      "white": 1198,
      "##ected": 1199,
      "center": 1200,
      "differ": 1201,
      "father": 1202,
      "beh": 1203,
      "##hern": 1204,
      "##pres": 1205,
      "june": 1206,
      "april": 1207,
      "##ility": 1208,
      "##orts": 1209,
      "line": 1210,
      "top": 1211,
      "##ices": 1212,
      "station": 1213,
      "##thing": 1214,
      "phil": 1215,
      "july": 1216,
      "##gin": 1217,
      "january": 1218,
      "##col": 1219,
      "##ues": 1220,
      "190": 1221,
      "british": 1222,
      "ii": 1223,
      "##ief": 1224,
      "##ored": 1225,
      "##iting": 1226,
      "25": 1227,
      "21": 1228,
      "##ats": 1229,
      "went": 1230,
      "spe": 1231,
      "party": 1232,
      "##ium": 1233,
      "##ature": 1234,
      "ref": 1235,
      "prot": 1236,
      "cast": 1237,
      "sum": 1238,
      "tec": 1239,
      "##ness": 1240,
      "2011": 1241,
      "produc": 1242,
      "000": 1243,
      "game": 1244,
      "##ued": 1245,
      "major": 1246,
      "rad": 1247,
      "few": 1248,
      "##ried": 1249,
      "##uk": 1250,
      "##que": 1251,
      "too": 1252,
      "age": 1253,
      "ec": 1254,
      "compet": 1255,
      "five": 1256,
      "##oad": 1257,
      "short": 1258,
      "il": 1259,
      "rail": 1260,
      "complet": 1261,
      "side": 1262,
      "##ined": 1263,
      "##ital": 1264,
      "young": 1265,
      "##ically": 1266,
      "president": 1267,
      "cle": 1268,
      "##atch": 1269,
      "church": 1270,
      "plac": 1271,
      "vol": 1272,
      "island": 1273,
      "face": 1274,
      "##aster": 1275,
      "ant": 1276,
      "light": 1277,
      "##yle": 1278,
      "asked": 1279,
      "local": 1280,
      "six": 1281,
      "##bs": 1282,
      "member": 1283,
      "night": 1284,
      "rom": 1285,
      "##ately": 1286,
      "find": 1287,
      "##present": 1288,
      "water": 1289,
      "##app": 1290,
      "##ize": 1291,
      "eyes": 1292,
      "##ds": 1293,
      "geor": 1294,
      "##ved": 1295,
      "##ison": 1296,
      "prev": 1297,
      "sol": 1298,
      "##ially": 1299,
      "##sh": 1300,
      "love": 1301,
      "friend": 1302,
      "support": 1303,
      "mal": 1304,
      "tell": 1305,
      "##ata": 1306,
      "##ted": 1307,
      "##ection": 1308,
      "thought": 1309,
      "europe": 1310,
      "##por": 1311,
      "##iness": 1312,
      "pos": 1313,
      "##ival": 1314,
      "read": 1315,
      "without": 1316,
      "##akes": 1317,
      "2012": 1318,
      "program": 1319,
      "fur": 1320,
      "##med": 1321,
      "canad": 1322,
      "##ama": 1323,
      "something": 1324,
      "pet": 1325,
      "sil": 1326,
      "##te": 1327,
      "##port": 1328,
      "##ures": 1329,
      "mark": 1330,
      "mo": 1331,
      "##ten": 1332,
      "disc": 1333,
      "##ended": 1334,
      "##ention": 1335,
      "next": 1336,
      "births": 1337,
      "fac": 1338,
      "squ": 1339,
      "30": 1340,
      "lang": 1341,
      "occ": 1342,
      "##fe": 1343,
      "dav": 1344,
      "poss": 1345,
      "french": 1346,
      "sal": 1347,
      "2009": 1348,
      "room": 1349,
      "single": 1350,
      "##ides": 1351,
      "189": 1352,
      "park": 1353,
      "looked": 1354,
      "hal": 1355,
      "final": 1356,
      "##ony": 1357,
      "november": 1358,
      "children": 1359,
      "##ography": 1360,
      "lond": 1361,
      "bur": 1362,
      "round": 1363,
      "typ": 1364,
      "vis": 1365,
      "##bru": 1366,
      "##yn": 1367,
      "london": 1368,
      "must": 1369,
      "conv": 1370,
      "188": 1371,
      "techn": 1372,
      "cup": 1373,
      "vers": 1374,
      "kill": 1375,
      "##ford": 1376,
      "##yr": 1377,
      "##ode": 1378,
      "##ple": 1379,
      "##bruary": 1380,
      "post": 1381,
      "conf": 1382,
      "put": 1383,
      "february": 1384,
      "sn": 1385,
      "##ech": 1386,
      "2014": 1387,
      "##ows": 1388,
      "succ": 1389,
      "##oke": 1390,
      "2006": 1391,
      "feel": 1392,
      "fre": 1393,
      "vo": 1394,
      "repl": 1395,
      "curr": 1396,
      "building": 1397,
      "gir": 1398,
      "hall": 1399,
      "opp": 1400,
      "ap": 1401,
      "died": 1402,
      "tele": 1403,
      "wa": 1404,
      "##uction": 1405,
      "##ster": 1406,
      "2013": 1407,
      "vict": 1408,
      "##atic": 1409,
      "describ": 1410,
      "come": 1411,
      "bi": 1412,
      "field": 1413,
      "mother": 1414,
      "##eder": 1415,
      "##ared": 1416,
      "2010": 1417,
      "hon": 1418,
      "ir": 1419,
      "door": 1420,
      "success": 1421,
      "li": 1422,
      "##oph": 1423,
      "bg": 1424,
      "er": 1425,
      "pain": 1426,
      "country": 1427,
      "##iety": 1428,
      "due": 1429,
      "##che": 1430,
      "##be": 1431,
      "##onom": 1432,
      "division": 1433,
      "pal": 1434,
      "##bo": 1435,
      "tour": 1436,
      "##elt": 1437,
      "expl": 1438,
      "third": 1439,
      "2016": 1440,
      "event": 1441,
      "cult": 1442,
      "eas": 1443,
      "##ways": 1444,
      "consid": 1445,
      "named": 1446,
      "proc": 1447,
      "2008": 1448,
      "##color": 1449,
      "##ches": 1450,
      "##ips": 1451,
      "enter": 1452,
      "##wards": 1453,
      "milit": 1454,
      "bgcolor": 1455,
      "##ged": 1456,
      "##iven": 1457,
      "exper": 1458,
      "command": 1459,
      "dou": 1460,
      "fact": 1461,
      "##ara": 1462,
      "front": 1463,
      "grand": 1464,
      "2007": 1465,
      "built": 1466,
      "help": 1467,
      "different": 1468,
      "san": 1469,
      "charac": 1470,
      "river": 1471,
      "engine": 1472,
      "22": 1473,
      "batt": 1474,
      "##hor": 1475,
      "##ham": 1476,
      "once": 1477,
      "why": 1478,
      "human": 1479,
      "tem": 1480,
      "##ested": 1481,
      "2005": 1482,
      "started": 1483,
      "langu": 1484,
      "##alth": 1485,
      "##ural": 1486,
      "##ven": 1487,
      "##ani": 1488,
      "##itions": 1489,
      "large": 1490,
      "##ille": 1491,
      "stop": 1492,
      "wes": 1493,
      "##aim": 1494,
      "##den": 1495,
      "deb": 1496,
      "education": 1497,
      "mor": 1498,
      "##vision": 1499,
      "stat": 1500,
      "story": 1501,
      "dev": 1502,
      "2018": 1503,
      "style": 1504,
      "##ards": 1505,
      "resear": 1506,
      "located": 1507,
      "##ency": 1508,
      "business": 1509,
      "got": 1510,
      "pur": 1511,
      "saw": 1512,
      "present": 1513,
      "instit": 1514,
      "##ves": 1515,
      "##esh": 1516,
      "##ipp": 1517,
      "##ought": 1518,
      "service": 1519,
      "24": 1520,
      "wind": 1521,
      "##aff": 1522,
      "big": 1523,
      "##ne": 1524,
      "##bur": 1525,
      "roy": 1526,
      "##ars": 1527,
      "within": 1528,
      "2015": 1529,
      "vi": 1530,
      "accord": 1531,
      "super": 1532,
      "2017": 1533,
      "mart": 1534,
      "##omin": 1535,
      "##lex": 1536,
      "##ached": 1537,
      "base": 1538,
      "mom": 1539,
      "represent": 1540,
      "does": 1541,
      "hol": 1542,
      "sit": 1543,
      "##adem": 1544,
      "perform": 1545,
      "##me": 1546,
      "##ines": 1547,
      "seem": 1548,
      "project": 1549,
      "##ission": 1550,
      "nort": 1551,
      "times": 1552,
      "street": 1553,
      "further": 1554,
      "fun": 1555,
      "##oint": 1556,
      "##na": 1557,
      "population": 1558,
      "television": 1559,
      "bal": 1560,
      "himself": 1561,
      "rock": 1562,
      "##tain": 1563,
      "army": 1564,
      "level": 1565,
      "court": 1566,
      "##yc": 1567,
      "##hel": 1568,
      "alth": 1569,
      "week": 1570,
      "addition": 1571,
      "##af": 1572,
      "qual": 1573,
      "although": 1574,
      "depart": 1575,
      "##ius": 1576,
      "among": 1577,
      "terr": 1578,
      "opened": 1579,
      "body": 1580,
      "equ": 1581,
      "mot": 1582,
      "rac": 1583,
      "requ": 1584,
      "##ified": 1585,
      "exc": 1586,
      "william": 1587,
      "mc": 1588,
      "sound": 1589,
      "##lished": 1590,
      "ins": 1591,
      "chang": 1592,
      "cond": 1593,
      "lab": 1594,
      "##erc": 1595,
      "ide": 1596,
      "girl": 1597,
      "100": 1598,
      "di": 1599,
      "hold": 1600,
      "##ma": 1601,
      "tot": 1602,
      "press": 1603,
      "##res": 1604,
      "##ger": 1605,
      "##ively": 1606,
      "##osp": 1607,
      "##press": 1608,
      "fire": 1609,
      "sat": 1610,
      "conn": 1611,
      "author": 1612,
      "sout": 1613,
      "##ured": 1614,
      "brother": 1615,
      "##ization": 1616,
      "served": 1617,
      "effect": 1618,
      "mean": 1619,
      "published": 1620,
      "special": 1621,
      "lim": 1622,
      "mich": 1623,
      "##rew": 1624,
      "featur": 1625,
      "##itten": 1626,
      "turned": 1627,
      "village": 1628,
      "fall": 1629,
      "lou": 1630,
      "often": 1631,
      "ital": 1632,
      "net": 1633,
      "vide": 1634,
      "##ha": 1635,
      "##king": 1636,
      "indian": 1637,
      "report": 1638,
      "moved": 1639,
      "according": 1640,
      "having": 1641,
      "je": 1642,
      "##aken": 1643,
      "2019": 1644,
      "central": 1645,
      "dam": 1646,
      "military": 1647,
      "26": 1648,
      "ran": 1649,
      "sent": 1650,
      "##ned": 1651,
      "days": 1652,
      "official": 1653,
      "established": 1654,
      "##aut": 1655,
      "prim": 1656,
      "received": 1657,
      "mr": 1658,
      "##ring": 1659,
      "inform": 1660,
      "##stand": 1661,
      "chap": 1662,
      "academ": 1663,
      "import": 1664,
      "toget": 1665,
      "epis": 1666,
      "david": 1667,
      "together": 1668,
      "23": 1669,
      "cas": 1670,
      "##par": 1671,
      "##ests": 1672,
      "aff": 1673,
      "que": 1674,
      "##lymp": 1675,
      "iss": 1676,
      "##umb": 1677,
      "counc": 1678,
      "community": 1679,
      "paul": 1680,
      "fem": 1681,
      "late": 1682,
      "royal": 1683,
      "bill": 1684,
      "olymp": 1685,
      "trad": 1686,
      "meet": 1687,
      "cross": 1688,
      "hard": 1689,
      "##ler": 1690,
      "##ops": 1691,
      "included": 1692,
      "hor": 1693,
      "mind": 1694,
      "sold": 1695,
      "##rip": 1696,
      "##ana": 1697,
      "works": 1698,
      "cover": 1699,
      "director": 1700,
      "cam": 1701,
      "led": 1702,
      "belie": 1703,
      "##ering": 1704,
      "##ibr": 1705,
      "attack": 1706,
      "original": 1707,
      "lost": 1708,
      "nav": 1709,
      "rich": 1710,
      "187": 1711,
      "live": 1712,
      "non": 1713,
      "##iod": 1714,
      "##ps": 1715,
      "##ruction": 1716,
      "##ground": 1717,
      "27": 1718,
      "jack": 1719,
      "journ": 1720,
      "##ting": 1721,
      "player": 1722,
      "ur": 1723,
      "sett": 1724,
      "##ounc": 1725,
      "broad": 1726,
      "incre": 1727,
      "political": 1728,
      "research": 1729,
      "gold": 1730,
      "hig": 1731,
      "told": 1732,
      "##ably": 1733,
      "include": 1734,
      "##rop": 1735,
      "crit": 1736,
      "appro": 1737,
      "development": 1738,
      "vir": 1739,
      "##ilar": 1740,
      "things": 1741,
      "period": 1742,
      "others": 1743,
      "written": 1744,
      "mun": 1745,
      "mass": 1746,
      "##idge": 1747,
      "heart": 1748,
      "##istr": 1749,
      "western": 1750,
      "full": 1751,
      "lo": 1752,
      "less": 1753,
      "ok": 1754,
      "##ming": 1755,
      "office": 1756,
      "become": 1757,
      "calif": 1758,
      "association": 1759,
      "econom": 1760,
      "##umn": 1761,
      "##ument": 1762,
      "2004": 1763,
      "election": 1764,
      "hands": 1765,
      "invest": 1766,
      "28": 1767,
      "km": 1768,
      "mur": 1769,
      "site": 1770,
      "##dom": 1771,
      "##ots": 1772,
      "knew": 1773,
      "species": 1774,
      "keep": 1775,
      "million": 1776,
      "behind": 1777,
      "free": 1778,
      "oh": 1779,
      "green": 1780,
      "2020": 1781,
      "council": 1782,
      "californ": 1783,
      "jud": 1784,
      "might": 1785,
      "making": 1786,
      "##ither": 1787,
      "space": 1788,
      "allow": 1789,
      "surv": 1790,
      "language": 1791,
      "given": 1792,
      "russ": 1793,
      "##ald": 1794,
      "woman": 1795,
      "fell": 1796,
      "rout": 1797,
      "##ross": 1798,
      "##ising": 1799,
      "##ico": 1800,
      "##acy": 1801,
      "##ays": 1802,
      "##oved": 1803,
      "bad": 1804,
      "felt": 1805,
      "##row": 1806,
      "##ours": 1807,
      "##iously": 1808,
      "half": 1809,
      "california": 1810,
      "ten": 1811,
      "ground": 1812,
      "186": 1813,
      "video": 1814,
      "tur": 1815,
      "uk": 1816,
      "stor": 1817,
      "alm": 1818,
      "total": 1819,
      "mem": 1820,
      "tom": 1821,
      "##ecut": 1822,
      "grad": 1823,
      "##eth": 1824,
      "always": 1825,
      "common": 1826,
      "similar": 1827,
      "title": 1828,
      "process": 1829,
      "##eum": 1830,
      "##line": 1831,
      "union": 1832,
      "sure": 1833,
      "intr": 1834,
      "give": 1835,
      "mad": 1836,
      "##uel": 1837,
      "##work": 1838,
      "##itor": 1839,
      "##ament": 1840,
      "heav": 1841,
      "seen": 1842,
      "wood": 1843,
      "##ael": 1844,
      "##gg": 1845,
      "minister": 1846,
      "bed": 1847,
      "sel": 1848,
      "##ones": 1849,
      "enc": 1850,
      "2002": 1851,
      "board": 1852,
      "lat": 1853,
      "really": 1854,
      "claim": 1855,
      "2001": 1856,
      "coach": 1857,
      "summer": 1858,
      "described": 1859,
      "cat": 1860,
      "civ": 1861,
      "james": 1862,
      "low": 1863,
      "##ances": 1864,
      "2000": 1865,
      "married": 1866,
      "earl": 1867,
      "george": 1868,
      "##oor": 1869,
      "##ky": 1870,
      "##ipal": 1871,
      "secret": 1872,
      "wall": 1873,
      "##20": 1874,
      "deaths": 1875,
      "professional": 1876,
      "roman": 1877,
      "##ners": 1878,
      "inf": 1879,
      "##irc": 1880,
      "proble": 1881,
      "museum": 1882,
      "australia": 1883,
      "voice": 1884,
      "host": 1885,
      "wife": 1886,
      "##18": 1887,
      "init": 1888,
      "##itar": 1889,
      "##ready": 1890,
      "produced": 1891,
      "phot": 1892,
      "defe": 1893,
      "society": 1894,
      "gave": 1895,
      "hot": 1896,
      "hill": 1897,
      "ple": 1898,
      "step": 1899,
      "force": 1900,
      "across": 1901,
      "anything": 1902,
      "##ena": 1903,
      "##idence": 1904,
      "already": 1905,
      "princ": 1906,
      "quest": 1907,
      "production": 1908,
      "hu": 1909,
      "##mon": 1910,
      "##less": 1911,
      "franc": 1912,
      "grow": 1913,
      "coll": 1914,
      "continued": 1915,
      "29": 1916,
      "der": 1917,
      "dark": 1918,
      "libr": 1919,
      "##field": 1920,
      "##sw": 1921,
      "trav": 1922,
      "unc": 1923,
      "social": 1924,
      "dest": 1925,
      "##ville": 1926,
      "begin": 1927,
      "##ocr": 1928,
      "perfor": 1929,
      "appoint": 1930,
      "ident": 1931,
      "fight": 1932,
      "gun": 1933,
      "pract": 1934,
      "records": 1935,
      "created": 1936,
      "version": 1937,
      "hit": 1938,
      "hap": 1939,
      "2021": 1940,
      "##aughter": 1941,
      "##to": 1942,
      "plan": 1943,
      "role": 1944,
      "radio": 1945,
      "##ript": 1946,
      "cert": 1947,
      "male": 1948,
      "sir": 1949,
      "##ges": 1950,
      "nothing": 1951,
      "committ": 1952,
      "region": 1953,
      "wanted": 1954,
      "various": 1955,
      "character": 1956,
      "feder": 1957,
      "enough": 1958,
      "##oney": 1959,
      "activ": 1960,
      "returned": 1961,
      "bay": 1962,
      "wasn": 1963,
      "##empt": 1964,
      "2003": 1965,
      "science": 1966,
      "invol": 1967,
      "lord": 1968,
      "ru": 1969,
      "sem": 1970,
      "##ino": 1971,
      "##ams": 1972,
      "soon": 1973,
      "draw": 1974,
      "assist": 1975,
      "particular": 1976,
      "den": 1977,
      "events": 1978,
      "announc": 1979,
      "circ": 1980,
      "fund": 1981,
      "thing": 1982,
      "##imin": 1983,
      "##ustr": 1984,
      "admin": 1985,
      "northern": 1986,
      "bank": 1987,
      "hur": 1988,
      "nec": 1989,
      "##hers": 1990,
      "using": 1991,
      "working": 1992,
      "control": 1993,
      "case": 1994,
      "done": 1995,
      "kind": 1996,
      "offer": 1997,
      "today": 1998,
      "##iff": 1999,
      "better": 2000,
      "japanese": 2001,
      "doc": 2002,
      "rul": 2003,
      "##ney": 2004,
      "##d6": 2005,
      "##ened": 2006,
      "health": 2007,
      "able": 2008,
      "india": 2009,
      "##airs": 2010,
      "product": 2011,
      "civil": 2012,
      "performan": 2013,
      "key": 2014,
      "##ead": 2015,
      "##bor": 2016,
      "priv": 2017,
      "police": 2018,
      "ham": 2019,
      "mult": 2020,
      "past": 2021,
      "quick": 2022,
      "##dle": 2023,
      "##ape": 2024,
      "mex": 2025,
      "text": 2026,
      "bit": 2027,
      "pan": 2028,
      "sun": 2029,
      "blood": 2030,
      "kingdom": 2031,
      "department": 2032,
      "esp": 2033,
      "wil": 2034,
      "theat": 2035,
      "thom": 2036,
      "##ogn": 2037,
      "america": 2038,
      "personal": 2039,
      "ver": 2040,
      "##go": 2041,
      "chin": 2042,
      "rob": 2043,
      "blue": 2044,
      "books": 2045,
      "modern": 2046,
      "ber": 2047,
      "sus": 2048,
      "tou": 2049,
      "table": 2050,
      "##eal": 2051,
      "##ators": 2052,
      "##aves": 2053,
      "struct": 2054,
      "services": 2055,
      "european": 2056,
      "important": 2057,
      "almost": 2058,
      "mer": 2059,
      "##rican": 2060,
      "##iec": 2061,
      "##imes": 2062,
      "england": 2063,
      "republ": 2064,
      "##hib": 2065,
      "##ya": 2066,
      "infl": 2067,
      "express": 2068,
      "songs": 2069,
      "awards": 2070,
      "fest": 2071,
      "##itive": 2072,
      "upon": 2073,
      "indep": 2074,
      "students": 2075,
      "happen": 2076,
      "independ": 2077,
      "aud": 2078,
      "jose": 2079,
      "##bed": 2080,
      "##itect": 2081,
      "##str": 2082,
      "scre": 2083,
      "popular": 2084,
      "points": 2085,
      "##oming": 2086,
      "fore": 2087,
      "##cted": 2088,
      "sea": 2089,
      "schools": 2090,
      "worked": 2091,
      "battle": 2092,
      "information": 2093,
      "administr": 2094,
      "data": 2095,
      "fa": 2096,
      "kh": 2097,
      "los": 2098,
      "pap": 2099,
      "sour": 2100,
      "yes": 2101,
      "inside": 2102,
      "arg": 2103,
      "sport": 2104,
      "politic": 2105,
      "architect": 2106,
      "hy": 2107,
      "hen": 2108,
      "lik": 2109,
      "tor": 2110,
      "##aps": 2111,
      "doct": 2112,
      "phys": 2113,
      "wrote": 2114,
      "places": 2115,
      "southern": 2116,
      "cut": 2117,
      "et": 2118,
      "kar": 2119,
      "##gy": 2120,
      "##used": 2121,
      "comb": 2122,
      "ship": 2123,
      "outside": 2124,
      "flor": 2125,
      "background": 2126,
      "constit": 2127,
      "democr": 2128,
      "results": 2129,
      "railway": 2130,
      "moment": 2131,
      "31": 2132,
      "mel": 2133,
      "##lo": 2134,
      "##lic": 2135,
      "##isc": 2136,
      "sex": 2137,
      "185": 2138,
      "prem": 2139,
      "boy": 2140,
      "##ological": 2141,
      "angel": 2142,
      "position": 2143,
      "journal": 2144,
      "pot": 2145,
      "race": 2146,
      "tv": 2147,
      "taken": 2148,
      "##oted": 2149,
      "robert": 2150,
      "##iction": 2151,
      "groups": 2152,
      "particip": 2153,
      "50": 2154,
      "es": 2155,
      "foc": 2156,
      "tax": 2157,
      "##ship": 2158,
      "##utes": 2159,
      "##iment": 2160,
      "##ush": 2161,
      "strong": 2162,
      "earth": 2163,
      "understand": 2164,
      "##ification": 2165,
      "clear": 2166,
      "hair": 2167,
      "pen": 2168,
      "ven": 2169,
      "view": 2170,
      "france": 2171,
      "cho": 2172,
      "clos": 2173,
      "184": 2174,
      "1999": 2175,
      "cell": 2176,
      "caus": 2177,
      "fif": 2178,
      "mas": 2179,
      "##ida": 2180,
      "examp": 2181,
      "laun": 2182,
      "mess": 2183,
      "sam": 2184,
      "##aj": 2185,
      "##xim": 2186,
      "seven": 2187,
      "relations": 2188,
      "term": 2189,
      "introd": 2190,
      "natur": 2191,
      "towards": 2192,
      "least": 2193,
      "##ption": 2194,
      "commission": 2195,
      "guitar": 2196,
      "dut": 2197,
      "##ca": 2198,
      "##ox": 2199,
      "##here": 2200,
      "##arch": 2201,
      "##ivid": 2202,
      "parl": 2203,
      "cop": 2204,
      "mary": 2205,
      "mix": 2206,
      "hear": 2207,
      "reb": 2208,
      "close": 2209,
      "impr": 2210,
      "looking": 2211,
      "release": 2212,
      "historic": 2213,
      "aw": 2214,
      "fut": 2215,
      "##tt": 2216,
      "##ze": 2217,
      "##omb": 2218,
      "reason": 2219,
      "chief": 2220,
      "##ago": 2221,
      "lear": 2222,
      "sports": 2223,
      "playing": 2224,
      "interest": 2225,
      "larg": 2226,
      "debut": 2227,
      "ben": 2228,
      "eight": 2229,
      "wid": 2230,
      "##ries": 2231,
      "##ka": 2232,
      "birth": 2233,
      "buildings": 2234,
      "appeared": 2235,
      "40": 2236,
      "fig": 2237,
      "ol": 2238,
      "voc": 2239,
      "##9e": 2240,
      "##iled": 2241,
      "shar": 2242,
      "notes": 2243,
      "areas": 2244,
      "words": 2245,
      "desp": 2246,
      "studies": 2247,
      "instead": 2248,
      "##cover": 2249,
      "establish": 2250,
      "hous": 2251,
      "tourn": 2252,
      "##uce": 2253,
      "anim": 2254,
      "##aint": 2255,
      "joined": 2256,
      "charles": 2257,
      "treat": 2258,
      "ill": 2259,
      "hom": 2260,
      "mac": 2261,
      "ps": 2262,
      "pul": 2263,
      "##cer": 2264,
      "chart": 2265,
      "##unt": 2266,
      "individ": 2267,
      "attempt": 2268,
      "course": 2269,
      "australian": 2270,
      "type": 2271,
      "bul": 2272,
      "bud": 2273,
      "cost": 2274,
      "##ke": 2275,
      "##iding": 2276,
      "relig": 2277,
      "current": 2278,
      "lay": 2279,
      "nar": 2280,
      "##ced": 2281,
      "##aft": 2282,
      "##ique": 2283,
      "fort": 2284,
      "anc": 2285,
      "gradu": 2286,
      "library": 2287,
      "corn": 2288,
      "##ili": 2289,
      "20th": 2290,
      "word": 2291,
      "scott": 2292,
      "finally": 2293,
      "founded": 2294,
      "teams": 2295,
      "meth": 2296,
      "ren": 2297,
      "rather": 2298,
      "##gar": 2299,
      "##ises": 2300,
      "##eter": 2301,
      "reached": 2302,
      "coast": 2303,
      "couldn": 2304,
      "##iament": 2305,
      "canadian": 2306,
      "##anish": 2307,
      "##read": 2308,
      "stay": 2309,
      "spir": 2310,
      "reading": 2311,
      "##burg": 2312,
      "episode": 2313,
      "aver": 2314,
      "mic": 2315,
      "##ract": 2316,
      "##uit": 2317,
      "##ker": 2318,
      "##olution": 2319,
      "##ume": 2320,
      "prob": 2321,
      "appointed": 2322,
      "parliament": 2323,
      "du": 2324,
      "master": 2325,
      "ul": 2326,
      "##head": 2327,
      "deep": 2328,
      "##ference": 2329,
      "color": 2330,
      "tex": 2331,
      "assemb": 2332,
      "institute": 2333,
      "michael": 2334,
      "bow": 2335,
      "ball": 2336,
      "either": 2337,
      "##igr": 2338,
      "##raft": 2339,
      "everything": 2340,
      "canada": 2341,
      "gar": 2342,
      "##ids": 2343,
      "exist": 2344,
      "agre": 2345,
      "decided": 2346,
      "##ergy": 2347,
      "replac": 2348,
      "considered": 2349,
      "tradition": 2350,
      "announced": 2351,
      "##aur": 2352,
      "##wood": 2353,
      "dead": 2354,
      "webs": 2355,
      "soft": 2356,
      "box": 2357,
      "##fully": 2358,
      "break": 2359,
      "victor": 2360,
      "loss": 2361,
      "test": 2362,
      "wat": 2363,
      "##icle": 2364,
      "ath": 2365,
      "##ift": 2366,
      "recorded": 2367,
      "transport": 2368,
      "says": 2369,
      "signed": 2370,
      "daughter": 2371,
      "tar": 2372,
      "##cast": 2373,
      "##aign": 2374,
      "##ij": 2375,
      "##hold": 2376,
      "##ania": 2377,
      "##omm": 2378,
      "##lement": 2379,
      "##amb": 2380,
      "anal": 2381,
      "deal": 2382,
      "##sequ": 2383,
      "christian": 2384,
      "##ket": 2385,
      "##ination": 2386,
      "washing": 2387,
      "##istic": 2388,
      "chair": 2389,
      "##aged": 2390,
      "plant": 2391,
      "##ishing": 2392,
      "above": 2393,
      "followed": 2394,
      "chinese": 2395,
      "pay": 2396,
      "watch": 2397,
      "insp": 2398,
      "##elves": 2399,
      "trying": 2400,
      "albums": 2401,
      "campaign": 2402,
      "esc": 2403,
      "fav": 2404,
      "fail": 2405,
      "china": 2406,
      "neg": 2407,
      "news": 2408,
      "1998": 2409,
      "construction": 2410,
      "entire": 2411,
      "website": 2412,
      "yet": 2413,
      "##ban": 2414,
      "##ki": 2415,
      "##ining": 2416,
      "beaut": 2417,
      "##ements": 2418,
      "coming": 2419,
      "1994": 2420,
      "else": 2421,
      "media": 2422,
      "review": 2423,
      "middle": 2424,
      "influ": 2425,
      "foreign": 2426,
      "taking": 2427,
      "##of": 2428,
      "##mar": 2429,
      "forces": 2430,
      "heard": 2431,
      "##ump": 2432,
      "deg": 2433,
      "##ude": 2434,
      "adm": 2435,
      "##aught": 2436,
      "munic": 2437,
      "festival": 2438,
      "money": 2439,
      "sand": 2440,
      "##ll": 2441,
      "##ense": 2442,
      "inn": 2443,
      "##ota": 2444,
      "alumn": 2445,
      "closed": 2446,
      "goal": 2447,
      "african": 2448,
      "1990": 2449,
      "##reek": 2450,
      "eventually": 2451,
      "seemed": 2452,
      "thomas": 2453,
      "alex": 2454,
      "##ga": 2455,
      "paris": 2456,
      "match": 2457,
      "originally": 2458,
      "municipal": 2459,
      "##uff": 2460,
      "##oul": 2461,
      "##oma": 2462,
      "brown": 2463,
      "finished": 2464,
      "study": 2465,
      "slow": 2466,
      "natural": 2467,
      "texas": 2468,
      "washington": 2469,
      "kr": 2470,
      "##off": 2471,
      "##ala": 2472,
      "##itch": 2473,
      "##olic": 2474,
      "##ceed": 2475,
      "comput": 2476,
      "cann": 2477,
      "obs": 2478,
      "##ength": 2479,
      "squad": 2480,
      "investig": 2481,
      "35": 2482,
      "bat": 2483,
      "piec": 2484,
      "##ex": 2485,
      "##over": 2486,
      "stage": 2487,
      "##ending": 2488,
      "remained": 2489,
      "movement": 2490,
      "avail": 2491,
      "performed": 2492,
      "##ecutive": 2493,
      "federal": 2494,
      "pun": 2495,
      "##reg": 2496,
      "thus": 2497,
      "change": 2498,
      "183": 2499,
      "formed": 2500,
      "access": 2501,
      "model": 2502,
      "culture": 2503,
      "idea": 2504,
      "chapter": 2505,
      "food": 2506,
      "lower": 2507,
      "mont": 2508,
      "##uth": 2509,
      "##erson": 2510,
      "##aker": 2511,
      "compos": 2512,
      "feet": 2513,
      "##itting": 2514,
      "1995": 2515,
      "someone": 2516,
      "interv": 2517,
      "elected": 2518,
      "propert": 2519,
      "beginning": 2520,
      "committee": 2521,
      "alumni": 2522,
      "jer": 2523,
      "jew": 2524,
      "ox": 2525,
      "self": 2526,
      "wond": 2527,
      "##ny": 2528,
      "##fact": 2529,
      "##itz": 2530,
      "answ": 2531,
      "##odes": 2532,
      "doing": 2533,
      "##etting": 2534,
      "directed": 2535,
      "needed": 2536,
      "martin": 2537,
      "situ": 2538,
      "certain": 2539,
      "ach": 2540,
      "cand": 2541,
      "mach": 2542,
      "##erous": 2543,
      "##isl": 2544,
      "##ston": 2545,
      "##urs": 2546,
      "##ials": 2547,
      "regular": 2548,
      "##ribut": 2549,
      "liber": 2550,
      "academy": 2551,
      "performance": 2552,
      "theatre": 2553,
      "despite": 2554,
      "dom": 2555,
      "ha": 2556,
      "happ": 2557,
      "lot": 2558,
      "morn": 2559,
      "##my": 2560,
      "##nel": 2561,
      "reve": 2562,
      "leave": 2563,
      "##iple": 2564,
      "peak": 2565,
      "1992": 2566,
      "arts": 2567,
      "months": 2568,
      "germany": 2569,
      "featured": 2570,
      "private": 2571,
      "hop": 2572,
      "##loy": 2573,
      "##wr": 2574,
      "##11": 2575,
      "##ita": 2576,
      "brought": 2577,
      "accept": 2578,
      "whole": 2579,
      "norm": 2580,
      "##anced": 2581,
      "medal": 2582,
      "transl": 2583,
      "killed": 2584,
      "tournament": 2585,
      "gard": 2586,
      "op": 2587,
      "und": 2588,
      "##ula": 2589,
      "sugg": 2590,
      "energy": 2591,
      "drop": 2592,
      "##itted": 2593,
      "floor": 2594,
      "leading": 2595,
      "basket": 2596,
      "employ": 2597,
      "manager": 2598,
      "route": 2599,
      "question": 2600,
      "ca": 2601,
      "mos": 2602,
      "##iers": 2603,
      "recogn": 2604,
      "discover": 2605,
      "capt": 2606,
      "magaz": 2607,
      "document": 2608,
      "available": 2609,
      "ah": 2610,
      "gall": 2611,
      "sar": 2612,
      "##ym": 2613,
      "##ona": 2614,
      "frank": 2615,
      "separ": 2616,
      "##berg": 2617,
      "##ects": 2618,
      "account": 2619,
      "rights": 2620,
      "eastern": 2621,
      "hers": 2622,
      "##iation": 2623,
      "##anch": 2624,
      "##ases": 2625,
      "seat": 2626,
      "##uced": 2627,
      "##lands": 2628,
      "regional": 2629,
      "polic": 2630,
      "##gress": 2631,
      "possible": 2632,
      "average": 2633,
      "athlet": 2634,
      "action": 2635,
      "card": 2636,
      "nine": 2637,
      "rh": 2638,
      "diff": 2639,
      "francis": 2640,
      "touch": 2641,
      "spirit": 2642,
      "bord": 2643,
      "dar": 2644,
      "fear": 2645,
      "sant": 2646,
      "yell": 2647,
      "##ees": 2648,
      "##vir": 2649,
      "##hem": 2650,
      "##tered": 2651,
      "1997": 2652,
      "maybe": 2653,
      "senior": 2654,
      "female": 2655,
      "future": 2656,
      "assembly": 2657,
      "liter": 2658,
      "sort": 2659,
      "sens": 2660,
      "van": 2661,
      "wild": 2662,
      "##eks": 2663,
      "##orm": 2664,
      "prince": 2665,
      "tried": 2666,
      "training": 2667,
      "conserv": 2668,
      "##enced": 2669,
      "deter": 2670,
      "professor": 2671,
      "friends": 2672,
      "technology": 2673,
      "method": 2674,
      "basketball": 2675,
      "mater": 2676,
      "##oo": 2677,
      "##ba": 2678,
      "##li": 2679,
      "##istry": 2680,
      "sud": 2681,
      "centre": 2682,
      "remember": 2683,
      "province": 2684,
      "running": 2685,
      "viol": 2686,
      "45": 2687,
      "cath": 2688,
      "penn": 2689,
      "##bc": 2690,
      "##bi": 2691,
      "staff": 2692,
      "##oken": 2693,
      "marc": 2694,
      "regard": 2695,
      "guard": 2696,
      "captain": 2697,
      "saying": 2698,
      "republic": 2699,
      "doctor": 2700,
      "eth": 2701,
      "hung": 2702,
      "kore": 2703,
      "move": 2704,
      "##de": 2705,
      "##gian": 2706,
      "##reat": 2707,
      "##urity": 2708,
      "chall": 2709,
      "conference": 2710,
      "1996": 2711,
      "##ensive": 2712,
      "quar": 2713,
      "writ": 2714,
      "leaders": 2715,
      "object": 2716,
      "novel": 2717,
      "##rica": 2718,
      "sometimes": 2719,
      "peter": 2720,
      "primary": 2721,
      "morning": 2722,
      "fle": 2723,
      "lie": 2724,
      "sle": 2725,
      "size": 2726,
      "##yan": 2727,
      "##enth": 2728,
      "##olf": 2729,
      "##ights": 2730,
      "acqu": 2731,
      "officer": 2732,
      "network": 2733,
      "dig": 2734,
      "hosp": 2735,
      "lake": 2736,
      "##oon": 2737,
      "stone": 2738,
      "neigh": 2739,
      "shot": 2740,
      "plann": 2741,
      "abs": 2742,
      "everyone": 2743,
      "communic": 2744,
      "developed": 2745,
      "frequ": 2746,
      "richard": 2747,
      "henry": 2748,
      "example": 2749,
      "jes": 2750,
      "tenn": 2751,
      "##men": 2752,
      "##ging": 2753,
      "##essed": 2754,
      "arms": 2755,
      "winning": 2756,
      "mountain": 2757,
      "speed": 2758,
      "completed": 2759,
      "bab": 2760,
      "cit": 2761,
      "cens": 2762,
      "hell": 2763,
      "swe": 2764,
      "##12": 2765,
      "##ecially": 2766,
      "stood": 2767,
      "ord": 2768,
      "footballers": 2769,
      "leader": 2770,
      "designed": 2771,
      "talk": 2772,
      "reported": 2773,
      "quickly": 2774,
      "probably": 2775,
      "fair": 2776,
      "gal": 2777,
      "haw": 2778,
      "##craft": 2779,
      "##har": 2780,
      "##icles": 2781,
      "##ette": 2782,
      "collect": 2783,
      "louis": 2784,
      "virgin": 2785,
      "fing": 2786,
      "lu": 2787,
      "lif": 2788,
      "sister": 2789,
      "##gn": 2790,
      "prison": 2791,
      "except": 2792,
      "minutes": 2793,
      "longer": 2794,
      "companies": 2795,
      "dre": 2796,
      "fc": 2797,
      "hus": 2798,
      "pict": 2799,
      "prior": 2800,
      "carol": 2801,
      "parents": 2802,
      "pret": 2803,
      "1989": 2804,
      "singer": 2805,
      "singles": 2806,
      "oppos": 2807,
      "cyc": 2808,
      "din": 2809,
      "fer": 2810,
      "lem": 2811,
      "mir": 2812,
      "##vers": 2813,
      "##ential": 2814,
      "chic": 2815,
      "trail": 2816,
      "##ability": 2817,
      "##overs": 2818,
      "##ateg": 2819,
      "brand": 2820,
      "##ective": 2821,
      "colon": 2822,
      "fourth": 2823,
      "added": 2824,
      "competition": 2825,
      "believe": 2826,
      "problem": 2827,
      "especially": 2828,
      "60": 2829,
      "ce": 2830,
      "wide": 2831,
      "##rd": 2832,
      "##ole": 2833,
      "##ych": 2834,
      "##atory": 2835,
      "##agon": 2836,
      "try": 2837,
      "shoot": 2838,
      "plat": 2839,
      "##ortun": 2840,
      "bring": 2841,
      "musical": 2842,
      "##ocked": 2843,
      "minor": 2844,
      "lines": 2845,
      "capital": 2846,
      "walked": 2847,
      "imm": 2848,
      "contract": 2849,
      "anti": 2850,
      "market": 2851,
      "dim": 2852,
      "pac": 2853,
      "pick": 2854,
      "##ta": 2855,
      "##ibility": 2856,
      "##aching": 2857,
      "register": 2858,
      "legisl": 2859,
      "placed": 2860,
      "occup": 2861,
      "independent": 2862,
      "focus": 2863,
      "bene": 2864,
      "nomin": 2865,
      "##ios": 2866,
      "##ffer": 2867,
      "##16": 2868,
      "##oun": 2869,
      "##asing": 2870,
      "pred": 2871,
      "youth": 2872,
      "grant": 2873,
      "collection": 2874,
      "governor": 2875,
      "##ificant": 2876,
      "respons": 2877,
      "herself": 2878,
      "ban": 2879,
      "bass": 2880,
      "hours": 2881,
      "ye": 2882,
      "##ao": 2883,
      "##fect": 2884,
      "##aries": 2885,
      "##ades": 2886,
      "chann": 2887,
      "spanish": 2888,
      "actually": 2889,
      "medical": 2890,
      "islands": 2891,
      "additional": 2892,
      "italian": 2893,
      "memor": 2894,
      "destro": 2895,
      "bor": 2896,
      "sav": 2897,
      "##iest": 2898,
      "##kn": 2899,
      "##well": 2900,
      "##10": 2901,
      "##asc": 2902,
      "asian": 2903,
      "comed": 2904,
      "##apt": 2905,
      "1984": 2906,
      "significant": 2907,
      "passed": 2908,
      "management": 2909,
      "susp": 2910,
      "reveal": 2911,
      "bish": 2912,
      "cust": 2913,
      "matt": 2914,
      "##hi": 2915,
      "##15": 2916,
      "##ano": 2917,
      "##ipped": 2918,
      "exhib": 2919,
      "means": 2920,
      "africa": 2921,
      "commerc": 2922,
      "writing": 2923,
      "1986": 2924,
      "1987": 2925,
      "artist": 2926,
      "##medi": 2927,
      "changed": 2928,
      "broadcast": 2929,
      "hope": 2930,
      "range": 2931,
      "sor": 2932,
      "##ck": 2933,
      "##atives": 2934,
      "##iev": 2935,
      "includes": 2936,
      "artists": 2937,
      "attention": 2938,
      "aircraft": 2939,
      "subject": 2940,
      "transfer": 2941,
      "value": 2942,
      "##uke": 2943,
      "doub": 2944,
      "features": 2945,
      "meeting": 2946,
      "allowed": 2947,
      "secretary": 2948,
      "ram": 2949,
      "##oe": 2950,
      "##arily": 2951,
      "##elle": 2952,
      "##idae": 2953,
      "ali": 2954,
      "envir": 2955,
      "clim": 2956,
      "##road": 2957,
      "##rael": 2958,
      "##ledge": 2959,
      "household": 2960,
      "provided": 2961,
      "kept": 2962,
      "castle": 2963,
      "higher": 2964,
      "critic": 2965,
      "turk": 2966,
      "traditional": 2967,
      "dani": 2968,
      "##ris": 2969,
      "##era": 2970,
      "##erve": 2971,
      "thems": 2972,
      "##icult": 2973,
      "##enty": 2974,
      "train": 2975,
      "couple": 2976,
      "weeks": 2977,
      "scr": 2978,
      "itself": 2979,
      "1991": 2980,
      "##room": 2981,
      "organization": 2982,
      "travel": 2983,
      "themselves": 2984,
      "bes": 2985,
      "nod": 2986,
      "pu": 2987,
      "zeal": 2988,
      "##ded": 2989,
      "inj": 2990,
      "forest": 2991,
      "spent": 2992,
      "drama": 2993,
      "listed": 2994,
      "concern": 2995,
      "economic": 2996,
      "mexico": 2997,
      "34": 2998,
      "die": 2999,
      "makes": 3000,
      "##nes": 3001,
      "##200": 3002,
      "##ii": 3003,
      "##la": 3004,
      "##pan": 3005,
      "toward": 3006,
      "##ado": 3007,
      "alone": 3008,
      "##ulated": 3009,
      "##ector": 3010,
      "writer": 3011,
      "countries": 3012,
      "airport": 3013,
      "below": 3014,
      "starting": 3015,
      "silver": 3016,
      "italy": 3017,
      "relationship": 3018,
      "environ": 3019,
      "gh": 3020,
      "luc": 3021,
      "ut": 3022,
      "##hood": 3023,
      "##hest": 3024,
      "israel": 3025,
      "##apped": 3026,
      "spr": 3027,
      "wouldn": 3028,
      "1993": 3029,
      "##ugg": 3030,
      "security": 3031,
      "mostly": 3032,
      "throughout": 3033,
      "subsequ": 3034,
      "breath": 3035,
      "raised": 3036,
      "championships": 3037,
      "baseball": 3038,
      "involved": 3039,
      "32": 3040,
      "bell": 3041,
      "os": 3042,
      "##wor": 3043,
      "##ari": 3044,
      "##ersey": 3045,
      "##ander": 3046,
      "spain": 3047,
      "notable": 3048,
      "actor": 3049,
      "##play": 3050,
      "studio": 3051,
      "surr": 3052,
      "month": 3053,
      "currently": 3054,
      "las": 3055,
      "mah": 3056,
      "tel": 3057,
      "##och": 3058,
      "##band": 3059,
      "##owers": 3060,
      "true": 3061,
      "##ify": 3062,
      "1975": 3063,
      "surpr": 3064,
      "historical": 3065,
      "olympic": 3066,
      "degree": 3067,
      "magazine": 3068,
      "cab": 3069,
      "roll": 3070,
      "saint": 3071,
      "vot": 3072,
      "##17": 3073,
      "##icated": 3074,
      "##icks": 3075,
      "##idents": 3076,
      "19th": 3077,
      "whose": 3078,
      "trib": 3079,
      "##iant": 3080,
      "goals": 3081,
      "score": 3082,
      "usually": 3083,
      "1978": 3084,
      "termin": 3085,
      "systems": 3086,
      "zealand": 3087,
      "surround": 3088,
      "domin": 3089,
      "fly": 3090,
      "ire": 3091,
      "jersey": 3092,
      "mut": 3093,
      "via": 3094,
      "##vin": 3095,
      "##ales": 3096,
      "##isted": 3097,
      "coun": 3098,
      "##elled": 3099,
      "amb": 3100,
      "schol": 3101,
      "decl": 3102,
      "nearly": 3103,
      "previous": 3104,
      "russian": 3105,
      "getting": 3106,
      "##cent": 3107,
      "congress": 3108,
      "##abor": 3109,
      "##iful": 3110,
      "##ension": 3111,
      "##azil": 3112,
      "surf": 3113,
      "clubs": 3114,
      "previously": 3115,
      "earlier": 3116,
      "defeated": 3117,
      "happened": 3118,
      "difficult": 3119,
      "hospital": 3120,
      "destroy": 3121,
      "iv": 3122,
      "ly": 3123,
      "##ding": 3124,
      "##enue": 3125,
      "threat": 3126,
      "leaving": 3127,
      "bridge": 3128,
      "carl": 3129,
      "drum": 3130,
      "actress": 3131,
      "ended": 3132,
      "seasons": 3133,
      "##board": 3134,
      "entered": 3135,
      "function": 3136,
      "navy": 3137,
      "heavy": 3138,
      "selected": 3139,
      "property": 3140,
      "catholic": 3141,
      "census": 3142,
      "chicago": 3143,
      "ireland": 3144,
      "mob": 3145,
      "opt": 3146,
      "sov": 3147,
      "wear": 3148,
      "forward": 3149,
      "##ims": 3150,
      "##use": 3151,
      "meas": 3152,
      "scored": 3153,
      "peace": 3154,
      "glob": 3155,
      "operations": 3156,
      "missing": 3157,
      "wait": 3158,
      "consider": 3159,
      "olympics": 3160,
      "politician": 3161,
      "ancient": 3162,
      "dog": 3163,
      "fine": 3164,
      "giving": 3165,
      "mouth": 3166,
      "section": 3167,
      "##bb": 3168,
      "##han": 3169,
      "##west": 3170,
      "##where": 3171,
      "##ental": 3172,
      "##ura": 3173,
      "ask": 3174,
      "ready": 3175,
      "##istics": 3176,
      "note": 3177,
      "##izing": 3178,
      "stra": 3179,
      "edward": 3180,
      "1988": 3181,
      "justice": 3182,
      "##ancy": 3183,
      "emb": 3184,
      "matches": 3185,
      "corpor": 3186,
      "concert": 3187,
      "approxim": 3188,
      "custom": 3189,
      "bott": 3190,
      "fish": 3191,
      "les": 3192,
      "rap": 3193,
      "##wer": 3194,
      "##ilities": 3195,
      "##aches": 3196,
      "##ola": 3197,
      "##illed": 3198,
      "cold": 3199,
      "mayor": 3200,
      "##ockey": 3201,
      "smith": 3202,
      "slight": 3203,
      "direction": 3204,
      "glass": 3205,
      "champion": 3206,
      "chris": 3207,
      "demon": 3208,
      "veh": 3209,
      "standard": 3210,
      "apart": 3211,
      "experience": 3212,
      "ice": 3213,
      "nature": 3214,
      "rid": 3215,
      "sr": 3216,
      "##ule": 3217,
      "##pre": 3218,
      "##78": 3219,
      "##het": 3220,
      "##ati": 3221,
      "##ushed": 3222,
      "quite": 3223,
      "edition": 3224,
      "active": 3225,
      "1979": 3226,
      "junior": 3227,
      "immedi": 3228,
      "behav": 3229,
      "georg": 3230,
      "##ription": 3231,
      "likely": 3232,
      "democratic": 3233,
      "largest": 3234,
      "psych": 3235,
      "quarter": 3236,
      "soviet": 3237,
      "cele": 3238,
      "fast": 3239,
      "hun": 3240,
      "##ois": 3241,
      "##back": 3242,
      "##lam": 3243,
      "##olk": 3244,
      "##usion": 3245,
      "whether": 3246,
      "182": 3247,
      "manu": 3248,
      "scot": 3249,
      "poor": 3250,
      "1969": 3251,
      "famil": 3252,
      "stopped": 3253,
      "purp": 3254,
      "launched": 3255,
      "pulled": 3256,
      "candid": 3257,
      "yellow": 3258,
      "path": 3259,
      "rate": 3260,
      "##more": 3261,
      "##tim": 3262,
      "react": 3263,
      "beat": 3264,
      "##ession": 3265,
      "trade": 3266,
      "job": 3267,
      "1980": 3268,
      "##rupt": 3269,
      "highway": 3270,
      "1945": 3271,
      "emerg": 3272,
      "tracks": 3273,
      "joseph": 3274,
      "replaced": 3275,
      "burn": 3276,
      "date": 3277,
      "jul": 3278,
      "tas": 3279,
      "##za": 3280,
      "##inn": 3281,
      "##onse": 3282,
      "##ening": 3283,
      "##ites": 3284,
      "feat": 3285,
      "contact": 3286,
      "teac": 3287,
      "appr": 3288,
      "industr": 3289,
      "anyone": 3290,
      "wales": 3291,
      "patr": 3292,
      "respect": 3293,
      "limited": 3294,
      "queen": 3295,
      "highest": 3296,
      "jesus": 3297,
      "commercial": 3298,
      "celebr": 3299,
      "bac": 3300,
      "ker": 3301,
      "names": 3302,
      "native": 3303,
      "ton": 3304,
      "##eople": 3305,
      "##ients": 3306,
      "##14": 3307,
      "##anian": 3308,
      "##itation": 3309,
      "##itory": 3310,
      "##ste": 3311,
      "stated": 3312,
      "stations": 3313,
      "##ulf": 3314,
      "##pper": 3315,
      "drink": 3316,
      "saf": 3317,
      "evidence": 3318,
      "applic": 3319,
      "accom": 3320,
      "##ruct": 3321,
      "student": 3322,
      "##ribution": 3323,
      "shows": 3324,
      "detail": 3325,
      "valley": 3326,
      "response": 3327,
      "square": 3328,
      "feeling": 3329,
      "honor": 3330,
      "jean": 3331,
      "bib": 3332,
      "nin": 3333,
      "pil": 3334,
      "ray": 3335,
      "##iences": 3336,
      "##ja": 3337,
      "##itors": 3338,
      "complex": 3339,
      "##ques": 3340,
      "parts": 3341,
      "related": 3342,
      "1973": 3343,
      "charl": 3344,
      "empire": 3345,
      "engineering": 3346,
      "interview": 3347,
      "daniel": 3348,
      "environment": 3349,
      "families": 3350,
      "38": 3351,
      "80": 3352,
      "az": 3353,
      "dyn": 3354,
      "log": 3355,
      "lives": 3356,
      "od": 3357,
      "##ev": 3358,
      "##tr": 3359,
      "##wa": 3360,
      "##13": 3361,
      "##ores": 3362,
      "##isions": 3363,
      "##oud": 3364,
      "##asion": 3365,
      "##ada": 3366,
      "##ira": 3367,
      "tro": 3368,
      "trust": 3369,
      "unit": 3370,
      "suffer": 3371,
      "indust": 3372,
      "smile": 3373,
      "1972": 3374,
      "terms": 3375,
      "provide": 3376,
      "sense": 3377,
      "doesn": 3378,
      "survey": 3379,
      "practice": 3380,
      "structure": 3381,
      "observ": 3382,
      "sudden": 3383,
      "manufact": 3384,
      "1st": 3385,
      "bound": 3386,
      "d6": 3387,
      "ic": 3388,
      "page": 3389,
      "takes": 3390,
      "##net": 3391,
      "##heast": 3392,
      "unl": 3393,
      "ships": 3394,
      "suff": 3395,
      "brazil": 3396,
      "enj": 3397,
      "weap": 3398,
      "carry": 3399,
      "1974": 3400,
      "knowledge": 3401,
      "belong": 3402,
      "1944": 3403,
      "eye": 3404,
      "stars": 3405,
      "philipp": 3406,
      "assistant": 3407,
      "necess": 3408,
      "rules": 3409,
      "##d6d6": 3410,
      "caused": 3411,
      "virginia": 3412,
      "featuring": 3413,
      "d6d6d6": 3414,
      "44": 3415,
      "75": 3416,
      "rug": 3417,
      "##oz": 3418,
      "##hire": 3419,
      "##inal": 3420,
      "prime": 3421,
      "cham": 3422,
      "arab": 3423,
      "scient": 3424,
      "ministry": 3425,
      "1976": 3426,
      "moving": 3427,
      "owned": 3428,
      "matter": 3429,
      "autom": 3430,
      "farm": 3431,
      "successful": 3432,
      "covered": 3433,
      "murder": 3434,
      "premier": 3435,
      "individual": 3436,
      "industry": 3437,
      "dang": 3438,
      "dance": 3439,
      "lack": 3440,
      "pack": 3441,
      "rod": 3442,
      "wing": 3443,
      "##ping": 3444,
      "##oring": 3445,
      "stad": 3446,
      "altern": 3447,
      "##change": 3448,
      "newsp": 3449,
      "becoming": 3450,
      "editor": 3451,
      "boys": 3452,
      "1983": 3453,
      "opening": 3454,
      "##riate": 3455,
      "simp": 3456,
      "portug": 3457,
      "##porary": 3458,
      "characters": 3459,
      "sources": 3460,
      "writers": 3461,
      "36": 3462,
      "bang": 3463,
      "dan": 3464,
      "jac": 3465,
      "length": 3466,
      "##tar": 3467,
      "##hu": 3468,
      "##haps": 3469,
      "##arian": 3470,
      "##iced": 3471,
      "stock": 3472,
      "##iger": 3473,
      "albert": 3474,
      "##anda": 3475,
      "##aka": 3476,
      "perhaps": 3477,
      "flight": 3478,
      "##icket": 3479,
      "1964": 3480,
      "walk": 3481,
      "producer": 3482,
      "confir": 3483,
      "opportun": 3484,
      "hotel": 3485,
      "florida": 3486,
      "vocals": 3487,
      "religious": 3488,
      "citiz": 3489,
      "newspap": 3490,
      "ded": 3491,
      "hang": 3492,
      "hind": 3493,
      "nations": 3494,
      "nick": 3495,
      "rub": 3496,
      "##ray": 3497,
      "##rain": 3498,
      "##down": 3499,
      "##yer": 3500,
      "##pa": 3501,
      "##ato": 3502,
      "store": 3503,
      "beg": 3504,
      "##oper": 3505,
      "units": 3506,
      "##ella": 3507,
      "crime": 3508,
      "plays": 3509,
      "phone": 3510,
      "1982": 3511,
      "financ": 3512,
      "attended": 3513,
      "distance": 3514,
      "install": 3515,
      "generally": 3516,
      "##ysis": 3517,
      "chem": 3518,
      "electric": 3519,
      "imag": 3520,
      "personnel": 3521,
      "speak": 3522,
      "complete": 3523,
      "##ophy": 3524,
      "engineer": 3525,
      "angeles": 3526,
      "beautiful": 3527,
      "enjoy": 3528,
      "37": 3529,
      "ib": 3530,
      "ign": 3531,
      "lived": 3532,
      "mist": 3533,
      "oil": 3534,
      "purch": 3535,
      "rose": 3536,
      "##ror": 3537,
      "##ias": 3538,
      "##fr": 3539,
      "##ko": 3540,
      "##vania": 3541,
      "thous": 3542,
      "##uten": 3543,
      "##istan": 3544,
      "##cend": 3545,
      "##ocks": 3546,
      "truth": 3547,
      "sund": 3548,
      "##iano": 3549,
      "##igned": 3550,
      "prec": 3551,
      "1981": 3552,
      "swed": 3553,
      "skin": 3554,
      "organiz": 3555,
      "arrived": 3556,
      "victory": 3557,
      "conduct": 3558,
      "meaning": 3559,
      "gallery": 3560,
      "thousand": 3561,
      "33": 3562,
      "dun": 3563,
      "fiction": 3564,
      "jim": 3565,
      "mis": 3566,
      "mech": 3567,
      "rain": 3568,
      "sin": 3569,
      "##oid": 3570,
      "##bers": 3571,
      "##itc": 3572,
      "whom": 3573,
      "orche": 3574,
      "ens": 3575,
      "180": 3576,
      "drug": 3577,
      "crew": 3578,
      "create": 3579,
      "elections": 3580,
      "##ylvania": 3581,
      "completely": 3582,
      "double": 3583,
      "paper": 3584,
      "cannot": 3585,
      "straight": 3586,
      "ny": 3587,
      "pier": 3588,
      "ring": 3589,
      "rank": 3590,
      "sad": 3591,
      "tun": 3592,
      "##cul": 3593,
      "##rian": 3594,
      "##uch": 3595,
      "##gu": 3596,
      "##ini": 3597,
      "beach": 3598,
      "anton": 3599,
      "##ifying": 3600,
      "shut": 3601,
      "shop": 3602,
      "contem": 3603,
      "guy": 3604,
      "deput": 3605,
      "##riage": 3606,
      "operation": 3607,
      "issues": 3608,
      "problems": 3609,
      "multiple": 3610,
      "husband": 3611,
      "pretty": 3612,
      "approximately": 3613,
      "00": 3614,
      "categ": 3615,
      "dail": 3616,
      "jon": 3617,
      "ros": 3618,
      "##sylvania": 3619,
      "##enge": 3620,
      "##iles": 3621,
      "##ador": 3622,
      "onto": 3623,
      "conver": 3624,
      "##illa": 3625,
      "exam": 3626,
      "branch": 3627,
      "sched": 3628,
      "bob": 3629,
      "1985": 3630,
      "poet": 3631,
      "location": 3632,
      "foundation": 3633,
      "max": 3634,
      "officers": 3635,
      "corre": 3636,
      "philos": 3637,
      "cultural": 3638,
      "please": 3639,
      "border": 3640,
      "stadium": 3641,
      "cd": 3642,
      "hund": 3643,
      "hockey": 3644,
      "mention": 3645,
      "ris": 3646,
      "##mond": 3647,
      "##90": 3648,
      "##light": 3649,
      "##fa": 3650,
      "##ented": 3651,
      "##aming": 3652,
      "online": 3653,
      "##irt": 3654,
      "asia": 3655,
      "anth": 3656,
      "concept": 3657,
      "lee": 3658,
      "##ibly": 3659,
      "specific": 3660,
      "mission": 3661,
      "standing": 3662,
      "discuss": 3663,
      "occur": 3664,
      "fellow": 3665,
      "screen": 3666,
      "computer": 3667,
      "machine": 3668,
      "##ributed": 3669,
      "pennsylvania": 3670,
      "hundred": 3671,
      "caught": 3672,
      "kid": 3673,
      "lady": 3674,
      "vice": 3675,
      "##ez": 3676,
      "##mark": 3677,
      "##gen": 3678,
      "##kin": 3679,
      "##ving": 3680,
      "##omes": 3681,
      "##igan": 3682,
      "ash": 3683,
      "alle": 3684,
      "fresh": 3685,
      "hero": 3686,
      "plate": 3687,
      "amount": 3688,
      "carried": 3689,
      "##mann": 3690,
      "wrest": 3691,
      "workers": 3692,
      "impress": 3693,
      "1963": 3694,
      "medic": 3695,
      "numerous": 3696,
      "1938": 3697,
      "##teen": 3698,
      "waiting": 3699,
      "territory": 3700,
      "issue": 3701,
      "slowly": 3702,
      "happy": 3703,
      "52": 3704,
      "bag": 3705,
      "lic": 3706,
      "rat": 3707,
      "rang": 3708,
      "sab": 3709,
      "soul": 3710,
      "##inct": 3711,
      "##elph": 3712,
      "##oles": 3713,
      "bey": 3714,
      "comment": 3715,
      "uns": 3716,
      "plants": 3717,
      "spring": 3718,
      "##oured": 3719,
      "##oston": 3720,
      "##ube": 3721,
      "remaining": 3722,
      "studied": 3723,
      "1953": 3724,
      "address": 3725,
      "emper": 3726,
      "promoted": 3727,
      "purs": 3728,
      "particularly": 3729,
      "##gypt": 3730,
      "policy": 3731,
      "sleep": 3732,
      "carolina": 3733,
      "rugby": 3734,
      "chamber": 3735,
      "boston": 3736,
      "era": 3737,
      "egypt": 3738,
      "gas": 3739,
      "gone": 3740,
      "hay": 3741,
      "hyp": 3742,
      "##book": 3743,
      "##lad": 3744,
      "##fort": 3745,
      "andrew": 3746,
      "comes": 3747,
      "shel": 3748,
      "##ogen": 3749,
      "marine": 3750,
      "nob": 3751,
      "regiment": 3752,
      "wrong": 3753,
      "attract": 3754,
      "1977": 3755,
      "movie": 3756,
      "expand": 3757,
      "legal": 3758,
      "refle": 3759,
      "##shire": 3760,
      "institut": 3761,
      "cases": 3762,
      "golden": 3763,
      "offered": 3764,
      "administration": 3765,
      "sexual": 3766,
      "francisco": 3767,
      "57": 3768,
      "e9e": 3769,
      "fab": 3770,
      "mike": 3771,
      "mcc": 3772,
      "sitting": 3773,
      "##nam": 3774,
      "##uz": 3775,
      "##las": 3776,
      "##lied": 3777,
      "##dr": 3778,
      "##inary": 3779,
      "##itage": 3780,
      "##rey": 3781,
      "##ils": 3782,
      "##aya": 3783,
      "sev": 3784,
      "##aped": 3785,
      "exact": 3786,
      "executive": 3787,
      "suc": 3788,
      "meant": 3789,
      "adj": 3790,
      "safe": 3791,
      "1970": 3792,
      "##ructed": 3793,
      "1950": 3794,
      "johnson": 3795,
      "expat": 3796,
      "21st": 3797,
      "replied": 3798,
      "effects": 3799,
      "okay": 3800,
      "figure": 3801,
      "##9e9": 3802,
      "oxford": 3803,
      "lemmon": 3804,
      "e9e9e9": 3805,
      "cy": 3806,
      "cow": 3807,
      "hab": 3808,
      "kiss": 3809,
      "nation": 3810,
      "overs": 3811,
      "##ria": 3812,
      "##dy": 3813,
      "##km": 3814,
      "##win": 3815,
      "##iling": 3816,
      "whis": 3817,
      "chance": 3818,
      "noted": 3819,
      "adop": 3820,
      "inte": 3821,
      "cred": 3822,
      "serb": 3823,
      "myself": 3824,
      "therefore": 3825,
      "##icted": 3826,
      "acting": 3827,
      "syn": 3828,
      "recording": 3829,
      "1942": 3830,
      "winter": 3831,
      "##speople": 3832,
      "older": 3833,
      "constant": 3834,
      "avenue": 3835,
      "railroad": 3836,
      "##burgh": 3837,
      "changes": 3838,
      "connect": 3839,
      "establishments": 3840,
      "houses": 3841,
      "garden": 3842,
      "bishop": 3843,
      "64": 3844,
      "bomb": 3845,
      "hour": 3846,
      "iron": 3847,
      "laugh": 3848,
      "pull": 3849,
      "vote": 3850,
      "##tained": 3851,
      "##80": 3852,
      "##iy": 3853,
      "##ero": 3854,
      "##aria": 3855,
      "grab": 3856,
      "maria": 3857,
      "columb": 3858,
      "carr": 3859,
      "##mph": 3860,
      "overall": 3861,
      "grew": 3862,
      "smiled": 3863,
      "minute": 3864,
      "article": 3865,
      "sym": 3866,
      "remain": 3867,
      "famous": 3868,
      "revolution": 3869,
      "runs": 3870,
      "letter": 3871,
      "thinking": 3872,
      "entr": 3873,
      "iii": 3874,
      "convers": 3875,
      "labor": 3876,
      "brothers": 3877,
      "ess": 3878,
      "treatment": 3879,
      "normal": 3880,
      "lieuten": 3881,
      "channel": 3882,
      "emperor": 3883,
      "500": 3884,
      "greek": 3885,
      "pad": 3886,
      "ron": 3887,
      "row": 3888,
      "tall": 3889,
      "##ci": 3890,
      "##wh": 3891,
      "##ider": 3892,
      "forced": 3893,
      "seed": 3894,
      "##ables": 3895,
      "##ova": 3896,
      "compar": 3897,
      "crow": 3898,
      "resist": 3899,
      "##awa": 3900,
      "twenty": 3901,
      "decision": 3902,
      "earned": 3903,
      "winners": 3904,
      "footballer": 3905,
      "##encies": 3906,
      "corps": 3907,
      "helped": 3908,
      "awarded": 3909,
      "appearance": 3910,
      "collabor": 3911,
      "architecture": 3912,
      "choice": 3913,
      "dutch": 3914,
      "determin": 3915,
      "surface": 3916,
      "scotland": 3917,
      "mechan": 3918,
      "70": 3919,
      "cause": 3920,
      "sac": 3921,
      "sell": 3922,
      "##don": 3923,
      "##pe": 3924,
      "##ware": 3925,
      "##watch": 3926,
      "##79": 3927,
      "##isters": 3928,
      "##ingu": 3929,
      "##stra": 3930,
      "##adelph": 3931,
      "##ems": 3932,
      "heritage": 3933,
      "shr": 3934,
      "crimin": 3935,
      "partners": 3936,
      "##ulty": 3937,
      "americ": 3938,
      "1952": 3939,
      "swim": 3940,
      "arrang": 3941,
      "promot": 3942,
      "associated": 3943,
      "philadelph": 3944,
      "commander": 3945,
      "temper": 3946,
      "required": 3947,
      "affairs": 3948,
      "fighting": 3949,
      "activities": 3950,
      "sportspeople": 3951,
      "favor": 3952,
      "philadelphia": 3953,
      "da": 3954,
      "hav": 3955,
      "jr": 3956,
      "kitt": 3957,
      "wed": 3958,
      "zone": 3959,
      "##rid": 3960,
      "##lor": 3961,
      "##ss": 3962,
      "##hew": 3963,
      "ones": 3964,
      "forms": 3965,
      "##unk": 3966,
      "##ills": 3967,
      "##antic": 3968,
      "brook": 3969,
      "worth": 3970,
      "join": 3971,
      "disp": 3972,
      "prep": 3973,
      "attend": 3974,
      "impact": 3975,
      "##enger": 3976,
      "demand": 3977,
      "township": 3978,
      "trees": 3979,
      "continue": 3980,
      "extre": 3981,
      "restaur": 3982,
      "biography": 3983,
      "horse": 3984,
      "claimed": 3985,
      "products": 3986,
      "situation": 3987,
      "immediately": 3988,
      "ga": 3989,
      "gaz": 3990,
      "upper": 3991,
      "##hl": 3992,
      "##hab": 3993,
      "##45": 3994,
      "##orpor": 3995,
      "##ila": 3996,
      "seats": 3997,
      "spoke": 3998,
      "grade": 3999,
      "diss": 4000,
      "elev": 4001,
      "genus": 4002,
      "linear": 4003,
      "1965": 4004,
      "1957": 4005,
      "harv": 4006,
      "sky": 4007,
      "summ": 4008,
      "programs": 4009,
      "irish": 4010,
      "temple": 4011,
      "quality": 4012,
      "queens": 4013,
      "believed": 4014,
      "neck": 4015,
      "analysis": 4016,
      "wonder": 4017,
      "nodded": 4018,
      "simply": 4019,
      "financial": 4020,
      "47": 4021,
      "cz": 4022,
      "diam": 4023,
      "kim": 4024,
      "oce": 4025,
      "##mission": 4026,
      "##uing": 4027,
      "##ien": 4028,
      "##lah": 4029,
      "##wan": 4030,
      "##any": 4031,
      "pray": 4032,
      "unf": 4033,
      "income": 4034,
      "##ansas": 4035,
      "contains": 4036,
      "percent": 4037,
      "block": 4038,
      "parish": 4039,
      "remains": 4040,
      "looks": 4041,
      "1959": 4042,
      "1948": 4043,
      "metal": 4044,
      "directly": 4045,
      "##ricult": 4046,
      "variety": 4047,
      "extended": 4048,
      "titles": 4049,
      "condition": 4050,
      "authority": 4051,
      "increase": 4052,
      "judge": 4053,
      "constitu": 4054,
      "jewish": 4055,
      "dropped": 4056,
      "documentary": 4057,
      "revealed": 4058,
      "georgia": 4059,
      "39": 4060,
      "42": 4061,
      "au": 4062,
      "eat": 4063,
      "um": 4064,
      "##uals": 4065,
      "##bour": 4066,
      "theory": 4067,
      "##inem": 4068,
      "share": 4069,
      "##iana": 4070,
      "##ously": 4071,
      "firm": 4072,
      "feed": 4073,
      "ago": 4074,
      "drive": 4075,
      "formation": 4076,
      "1968": 4077,
      "founder": 4078,
      "1958": 4079,
      "winner": 4080,
      "needs": 4081,
      "managed": 4082,
      "motion": 4083,
      "mrs": 4084,
      "spacewatch": 4085,
      "stories": 4086,
      "politicians": 4087,
      "scottish": 4088,
      "lieutenant": 4089,
      "ba": 4090,
      "bon": 4091,
      "kal": 4092,
      "merc": 4093,
      "sons": 4094,
      "##eed": 4095,
      "##ih": 4096,
      "ther": 4097,
      "##aded": 4098,
      "print": 4099,
      "seg": 4100,
      "unkn": 4101,
      "plot": 4102,
      "##iang": 4103,
      "agricult": 4104,
      "appar": 4105,
      "##ograp": 4106,
      "1971": 4107,
      "warm": 4108,
      "presence": 4109,
      "179": 4110,
      "defin": 4111,
      "appears": 4112,
      "alongside": 4113,
      "clean": 4114,
      "faculty": 4115,
      "##fefe": 4116,
      "jackson": 4117,
      "russia": 4118,
      "source": 4119,
      "municipality": 4120,
      "piece": 4121,
      "digital": 4122,
      "comedy": 4123,
      "65": 4124,
      "fat": 4125,
      "kel": 4126,
      "pair": 4127,
      "tan": 4128,
      "##iga": 4129,
      "reform": 4130,
      "##ima": 4131,
      "plans": 4132,
      "##pped": 4133,
      "web": 4134,
      "abb": 4135,
      "marriage": 4136,
      "feature": 4137,
      "parties": 4138,
      "drag": 4139,
      "perfect": 4140,
      "disapp": 4141,
      "yourself": 4142,
      "1940": 4143,
      "laws": 4144,
      "ordered": 4145,
      "volume": 4146,
      "easy": 4147,
      "races": 4148,
      "mexican": 4149,
      "faith": 4150,
      "fifth": 4151,
      "introduced": 4152,
      "narrow": 4153,
      "graduated": 4154,
      "slightly": 4155,
      "purpose": 4156,
      "49": 4157,
      "bol": 4158,
      "dip": 4159,
      "fal": 4160,
      "kenn": 4161,
      "map": 4162,
      "rand": 4163,
      "##ault": 4164,
      "##ls": 4165,
      "##lear": 4166,
      "forg": 4167,
      "##uments": 4168,
      "traff": 4169,
      "shown": 4170,
      "supre": 4171,
      "##iance": 4172,
      "spread": 4173,
      "bron": 4174,
      "brief": 4175,
      "scene": 4176,
      "cru": 4177,
      "recent": 4178,
      "display": 4179,
      "greater": 4180,
      "##azz": 4181,
      "serve": 4182,
      "imper": 4183,
      "instr": 4184,
      "headed": 4185,
      "communities": 4186,
      "##bridge": 4187,
      "respond": 4188,
      "majority": 4189,
      "positive": 4190,
      "windows": 4191,
      "initially": 4192,
      "influence": 4193,
      "discovered": 4194,
      "material": 4195,
      "organizations": 4196,
      "43": 4197,
      "90": 4198,
      "code": 4199,
      "kent": 4200,
      "mand": 4201,
      "rome": 4202,
      "ww": 4203,
      "##mas": 4204,
      "##hr": 4205,
      "##isation": 4206,
      "stan": 4207,
      "##tery": 4208,
      "confl": 4209,
      "broken": 4210,
      "strugg": 4211,
      "referred": 4212,
      "1966": 4213,
      "##etts": 4214,
      "capac": 4215,
      "evening": 4216,
      "appearances": 4217,
      "sales": 4218,
      "status": 4219,
      "motor": 4220,
      "latter": 4221,
      "catal": 4222,
      "initial": 4223,
      "budd": 4224,
      "planning": 4225,
      "industrial": 4226,
      "beyond": 4227,
      "expatriate": 4228,
      "ak": 4229,
      "cook": 4230,
      "dial": 4231,
      "kl": 4232,
      "ott": 4233,
      "rog": 4234,
      "##va": 4235,
      "##ora": 4236,
      "##itness": 4237,
      "##itude": 4238,
      "##emy": 4239,
      "bright": 4240,
      "broke": 4241,
      "partner": 4242,
      "strange": 4243,
      "##ologist": 4244,
      "retired": 4245,
      "1954": 4246,
      "numbers": 4247,
      "gets": 4248,
      "annual": 4249,
      "expect": 4250,
      "smaller": 4251,
      "progress": 4252,
      "efforts": 4253,
      "entertain": 4254,
      "window": 4255,
      "holy": 4256,
      "racing": 4257,
      "transportation": 4258,
      "unknown": 4259,
      "78": 4260,
      "bbc": 4261,
      "hug": 4262,
      "rab": 4263,
      "vac": 4264,
      "##enture": 4265,
      "pros": 4266,
      "islam": 4267,
      "##osen": 4268,
      "##abeth": 4269,
      "exchange": 4270,
      "goes": 4271,
      "uses": 4272,
      "indic": 4273,
      "interact": 4274,
      "charge": 4275,
      "subst": 4276,
      "##span": 4277,
      "miles": 4278,
      "electr": 4279,
      "operated": 4280,
      "shoulder": 4281,
      "##hens": 4282,
      "promin": 4283,
      "protect": 4284,
      "competed": 4285,
      "girls": 4286,
      "damage": 4287,
      "soldiers": 4288,
      "naval": 4289,
      "encour": 4290,
      "mixed": 4291,
      "corner": 4292,
      "sorry": 4293,
      "counter": 4294,
      "suddenly": 4295,
      "opportunity": 4296,
      "deputy": 4297,
      "3rd": 4298,
      "dad": 4299,
      "fox": 4300,
      "jenn": 4301,
      "mine": 4302,
      "vess": 4303,
      "##house": 4304,
      "##sa": 4305,
      "##yst": 4306,
      "##40": 4307,
      "##60": 4308,
      "##ji": 4309,
      "##atively": 4310,
      "##entr": 4311,
      "##ety": 4312,
      "##uries": 4313,
      "search": 4314,
      "shad": 4315,
      "leaves": 4316,
      "##gend": 4317,
      "tend": 4318,
      "quiet": 4319,
      "dism": 4320,
      "element": 4321,
      "serving": 4322,
      "1962": 4323,
      "1967": 4324,
      "1960s": 4325,
      "##anna": 4326,
      "seconds": 4327,
      "1956": 4328,
      "repe": 4329,
      "owners": 4330,
      "electron": 4331,
      "nearby": 4332,
      "reality": 4333,
      "description": 4334,
      "equip": 4335,
      "urban": 4336,
      "increased": 4337,
      "oklah": 4338,
      "princess": 4339,
      "growing": 4340,
      "berlin": 4341,
      "expression": 4342,
      "administrative": 4343,
      "physical": 4344,
      "agreement": 4345,
      "benef": 4346,
      "##stein": 4347,
      "citizens": 4348,
      "63": 4349,
      "bil": 4350,
      "cities": 4351,
      "fuck": 4352,
      "ts": 4353,
      "tree": 4354,
      "viet": 4355,
      "##cher": 4356,
      "##mad": 4357,
      "##sen": 4358,
      "##orter": 4359,
      "heat": 4360,
      "reach": 4361,
      "isn": 4362,
      "sequ": 4363,
      "composed": 4364,
      "##ika": 4365,
      "cancer": 4366,
      "##achus": 4367,
      "distribution": 4368,
      "1960": 4369,
      "creation": 4370,
      "larger": 4371,
      "mainly": 4372,
      "simple": 4373,
      "towns": 4374,
      "greatest": 4375,
      "senate": 4376,
      "paid": 4377,
      "terror": 4378,
      "growth": 4379,
      "rule": 4380,
      "global": 4381,
      "supreme": 4382,
      "oklahoma": 4383,
      "cer": 4384,
      "cub": 4385,
      "creek": 4386,
      "dur": 4387,
      "ho": 4388,
      "lad": 4389,
      "samp": 4390,
      "##bon": 4391,
      "##lers": 4392,
      "##hol": 4393,
      "##aned": 4394,
      "##itan": 4395,
      "##eland": 4396,
      "##owing": 4397,
      "pra": 4398,
      "atl": 4399,
      "##aging": 4400,
      "comics": 4401,
      "##umed": 4402,
      "##une": 4403,
      "trip": 4404,
      "adult": 4405,
      "intended": 4406,
      "##quar": 4407,
      "draft": 4408,
      "cooper": 4409,
      "1990s": 4410,
      "descend": 4411,
      "norwe": 4412,
      "secondary": 4413,
      "ways": 4414,
      "musicians": 4415,
      "showed": 4416,
      "statistics": 4417,
      "represented": 4418,
      "academic": 4419,
      "massachus": 4420,
      "agreed": 4421,
      "target": 4422,
      "subsequently": 4423,
      "daily": 4424,
      "succeed": 4425,
      "massachusetts": 4426,
      "58": 4427,
      "gate": 4428,
      "nuc": 4429,
      "ross": 4430,
      "rural": 4431,
      "sher": 4432,
      "##ns": 4433,
      "##under": 4434,
      "##68": 4435,
      "##iser": 4436,
      "##isher": 4437,
      "##aces": 4438,
      "##othes": 4439,
      "##ires": 4440,
      "asp": 4441,
      "spl": 4442,
      "hadn": 4443,
      "##asty": 4444,
      "recently": 4445,
      "joe": 4446,
      "thank": 4447,
      "eliz": 4448,
      "1939": 4449,
      "steel": 4450,
      "raf": 4451,
      "projects": 4452,
      "approach": 4453,
      "storm": 4454,
      "achie": 4455,
      "tennis": 4456,
      "dream": 4457,
      "contemporary": 4458,
      "whisper": 4459,
      "ast": 4460,
      "bod": 4461,
      "buck": 4462,
      "duke": 4463,
      "gon": 4464,
      "hat": 4465,
      "han": 4466,
      "ken": 4467,
      "kir": 4468,
      "rd": 4469,
      "von": 4470,
      "vic": 4471,
      "##rich": 4472,
      "##inity": 4473,
      "##ali": 4474,
      "##amm": 4475,
      "##urb": 4476,
      "chosen": 4477,
      "##vert": 4478,
      "trou": 4479,
      "compared": 4480,
      "resour": 4481,
      "serge": 4482,
      "coal": 4483,
      "articles": 4484,
      "consists": 4485,
      "1943": 4486,
      "laug": 4487,
      "soccer": 4488,
      "1937": 4489,
      "politics": 4490,
      "pattern": 4491,
      "talking": 4492,
      "episodes": 4493,
      "ohio": 4494,
      "victoria": 4495,
      "squadron": 4496,
      "pieces": 4497,
      "neighbor": 4498,
      "memorial": 4499,
      "transferred": 4500,
      "bibli": 4501,
      "necessary": 4502,
      "dedicated": 4503,
      "entertainment": 4504,
      "equipment": 4505,
      "norwegian": 4506,
      "aim": 4507,
      "kids": 4508,
      "nic": 4509,
      "rif": 4510,
      "##cl": 4511,
      "##met": 4512,
      "##gi": 4513,
      "##vis": 4514,
      "##wise": 4515,
      "##oned": 4516,
      "##icient": 4517,
      "##ushing": 4518,
      "shall": 4519,
      "compon": 4520,
      "dress": 4521,
      "contest": 4522,
      "perman": 4523,
      "joint": 4524,
      "##olled": 4525,
      "removed": 4526,
      "1955": 4527,
      "1947": 4528,
      "listing": 4529,
      "1924": 4530,
      "deliver": 4531,
      "mountains": 4532,
      "williams": 4533,
      "michigan": 4534,
      "memory": 4535,
      "latin": 4536,
      "korea": 4537,
      "challenge": 4538,
      "baby": 4539,
      "pacific": 4540,
      "yeah": 4541,
      "households": 4542,
      "demonstr": 4543,
      "orchestra": 4544,
      "integr": 4545,
      "bid": 4546,
      "cos": 4547,
      "cov": 4548,
      "doll": 4549,
      "eld": 4550,
      "filled": 4551,
      "mort": 4552,
      "sight": 4553,
      "##iny": 4554,
      "##ela": 4555,
      "whate": 4556,
      "##emic": 4557,
      "##ulations": 4558,
      "nep": 4559,
      "##ighter": 4560,
      "brad": 4561,
      "weight": 4562,
      "marsh": 4563,
      "reserv": 4564,
      "serious": 4565,
      "fefefe": 4566,
      "##awn": 4567,
      "flood": 4568,
      "edge": 4569,
      "1980s": 4570,
      "1961": 4571,
      "estate": 4572,
      "image": 4573,
      "vari": 4574,
      "younger": 4575,
      "presented": 4576,
      "increasing": 4577,
      "structures": 4578,
      "closer": 4579,
      "watching": 4580,
      "cabin": 4581,
      "destroyed": 4582,
      "teacher": 4583,
      "confirmed": 4584,
      "whatever": 4585,
      "55": 4586,
      "62": 4587,
      "85": 4588,
      "aer": 4589,
      "bos": 4590,
      "cinem": 4591,
      "gab": 4592,
      "poll": 4593,
      "rot": 4594,
      "tay": 4595,
      "tail": 4596,
      "wer": 4597,
      "##69": 4598,
      "alt": 4599,
      "prize": 4600,
      "leon": 4601,
      "org": 4602,
      "spons": 4603,
      "##ounds": 4604,
      "##oster": 4605,
      "scul": 4606,
      "cricket": 4607,
      "recon": 4608,
      "##icked": 4609,
      "boat": 4610,
      "consecutive": 4611,
      "harr": 4612,
      "harry": 4613,
      "1935": 4614,
      "opera": 4615,
      "arrested": 4616,
      "supported": 4617,
      "possibly": 4618,
      "freed": 4619,
      "settled": 4620,
      "korean": 4621,
      "picture": 4622,
      "safety": 4623,
      "troops": 4624,
      "newspaper": 4625,
      "columbia": 4626,
      "ocean": 4627,
      "fant": 4628,
      "kitc": 4629,
      "piano": 4630,
      "##bec": 4631,
      "##bury": 4632,
      "##zy": 4633,
      "##iday": 4634,
      "##aga": 4635,
      "##ager": 4636,
      "send": 4637,
      "##illery": 4638,
      "lev": 4639,
      "suit": 4640,
      "brig": 4641,
      "gray": 4642,
      "##ears": 4643,
      "##astic": 4644,
      "incorpor": 4645,
      "twice": 4646,
      "sax": 4647,
      "decor": 4648,
      "musl": 4649,
      "actions": 4650,
      "defense": 4651,
      "expected": 4652,
      "steve": 4653,
      "moon": 4654,
      "experiment": 4655,
      "doug": 4656,
      "authorities": 4657,
      "principal": 4658,
      "individuals": 4659,
      "watched": 4660,
      "acquired": 4661,
      "cycl": 4662,
      "sunday": 4663,
      "czech": 4664,
      "diamond": 4665,
      "traffic": 4666,
      "capacity": 4667,
      "54": 4668,
      "56": 4669,
      "ahead": 4670,
      "bath": 4671,
      "dal": 4672,
      "fix": 4673,
      "none": 4674,
      "ow": 4675,
      "rivers": 4676,
      "##no": 4677,
      "##uan": 4678,
      "##99": 4679,
      "##aling": 4680,
      "tower": 4681,
      "##stone": 4682,
      "##ols": 4683,
      "##urance": 4684,
      "##otic": 4685,
      "##ird": 4686,
      "ark": 4687,
      "spot": 4688,
      "amaz": 4689,
      "##pton": 4690,
      "driver": 4691,
      "content": 4692,
      "flo": 4693,
      "flat": 4694,
      "polish": 4695,
      "finals": 4696,
      "thanks": 4697,
      "implement": 4698,
      "bird": 4699,
      "birds": 4700,
      "estim": 4701,
      "geography": 4702,
      "anne": 4703,
      "chest": 4704,
      "##ucky": 4705,
      "concentr": 4706,
      "realized": 4707,
      "1918": 4708,
      "advant": 4709,
      "buried": 4710,
      "languages": 4711,
      "require": 4712,
      "females": 4713,
      "initi": 4714,
      "potential": 4715,
      "learned": 4716,
      "illustr": 4717,
      "inspired": 4718,
      "alexander": 4719,
      "conflict": 4720,
      "laughed": 4721,
      "sculpt": 4722,
      "aid": 4723,
      "ful": 4724,
      "gather": 4725,
      "jam": 4726,
      "lips": 4727,
      "mit": 4728,
      "nik": 4729,
      "niger": 4730,
      "ot": 4731,
      "rise": 4732,
      "sig": 4733,
      "##uous": 4734,
      "##84": 4735,
      "##lan": 4736,
      "##zen": 4737,
      "##70": 4738,
      "##inals": 4739,
      "thin": 4740,
      "alf": 4741,
      "##ctions": 4742,
      "##aked": 4743,
      "grass": 4744,
      "resident": 4745,
      "recover": 4746,
      "evil": 4747,
      "guest": 4748,
      "##anny": 4749,
      "1949": 4750,
      "provides": 4751,
      "sword": 4752,
      "barr": 4753,
      "supposed": 4754,
      "1926": 4755,
      "constructed": 4756,
      "reception": 4757,
      "thirty": 4758,
      "speech": 4759,
      "protection": 4760,
      "prevent": 4761,
      "walls": 4762,
      "questions": 4763,
      "planet": 4764,
      "ultim": 4765,
      "suggested": 4766,
      "ghost": 4767,
      "scholars": 4768,
      "purchased": 4769,
      "mentioned": 4770,
      "2nd": 4771,
      "ble": 4772,
      "cass": 4773,
      "catch": 4774,
      "dub": 4775,
      "dry": 4776,
      "gym": 4777,
      "kat": 4778,
      "kam": 4779,
      "nice": 4780,
      "naz": 4781,
      "pit": 4782,
      "tam": 4783,
      "vert": 4784,
      "##ros": 4785,
      "##mm": 4786,
      "##ua": 4787,
      "##kins": 4788,
      "##ici": 4789,
      "##iring": 4790,
      "repr": 4791,
      "price": 4792,
      "arth": 4793,
      "##ellig": 4794,
      "grace": 4795,
      "cla": 4796,
      "cool": 4797,
      "strike": 4798,
      "greg": 4799,
      "grey": 4800,
      "interp": 4801,
      "maxim": 4802,
      "headquar": 4803,
      "emot": 4804,
      "depend": 4805,
      "1936": 4806,
      "stared": 4807,
      "senator": 4808,
      "magic": 4809,
      "1908": 4810,
      "visit": 4811,
      "##ipping": 4812,
      "ideas": 4813,
      "loud": 4814,
      "combat": 4815,
      "sharp": 4816,
      "religion": 4817,
      "failed": 4818,
      "separate": 4819,
      "finger": 4820,
      "opposition": 4821,
      "tonight": 4822,
      "rd1": 4823,
      "cav": 4824,
      "cart": 4825,
      "gives": 4826,
      "jason": 4827,
      "ko": 4828,
      "lies": 4829,
      "moth": 4830,
      "na": 4831,
      "pin": 4832,
      "pav": 4833,
      "sides": 4834,
      "##ras": 4835,
      "##ories": 4836,
      "ontar": 4837,
      "##ivity": 4838,
      "alive": 4839,
      "shook": 4840,
      "legend": 4841,
      "spect": 4842,
      "scar": 4843,
      "myst": 4844,
      "strip": 4845,
      "##inton": 4846,
      "##aham": 4847,
      "artillery": 4848,
      "inters": 4849,
      "highly": 4850,
      "obv": 4851,
      "educated": 4852,
      "formerly": 4853,
      "tells": 4854,
      "snow": 4855,
      "primarily": 4856,
      "hills": 4857,
      "improv": 4858,
      "charts": 4859,
      "answer": 4860,
      "regarding": 4861,
      "communication": 4862,
      "behavior": 4863,
      "exactly": 4864,
      "dor": 4865,
      "gang": 4866,
      "jones": 4867,
      "lun": 4868,
      "lind": 4869,
      "lyr": 4870,
      "pp": 4871,
      "pant": 4872,
      "save": 4873,
      "##ram": 4874,
      "##ni": 4875,
      "##iel": 4876,
      "##yt": 4877,
      "##75": 4878,
      "##arm": 4879,
      "##eless": 4880,
      "##otyp": 4881,
      "##eman": 4882,
      "##usc": 4883,
      "trop": 4884,
      "brain": 4885,
      "clar": 4886,
      "compl": 4887,
      "crown": 4888,
      "##izes": 4889,
      "coff": 4890,
      "prepar": 4891,
      "1970s": 4892,
      "publishing": 4893,
      "produce": 4894,
      "ell": 4895,
      "laid": 4896,
      "supply": 4897,
      "stepped": 4898,
      "images": 4899,
      "conclud": 4900,
      "extra": 4901,
      "christmas": 4902,
      "sixth": 4903,
      "males": 4904,
      "battal": 4905,
      "holding": 4906,
      "encoun": 4907,
      "##kyo": 4908,
      "infant": 4909,
      "largely": 4910,
      "vocal": 4911,
      "housing": 4912,
      "chairman": 4913,
      "accepted": 4914,
      "granted": 4915,
      "corporation": 4916,
      "bottom": 4917,
      "alternative": 4918,
      "ontario": 4919,
      "48": 4920,
      "bot": 4921,
      "bern": 4922,
      "cem": 4923,
      "dak": 4924,
      "dave": 4925,
      "fame": 4926,
      "gent": 4927,
      "jess": 4928,
      "lock": 4929,
      "loved": 4930,
      "satur": 4931,
      "wave": 4932,
      "##rit": 4933,
      "##mine": 4934,
      "##has": 4935,
      "##sin": 4936,
      "##yth": 4937,
      "##put": 4938,
      "##38": 4939,
      "##wes": 4940,
      "##enz": 4941,
      "internal": 4942,
      "##olitan": 4943,
      "##ete": 4944,
      "alan": 4945,
      "isa": 4946,
      "##cho": 4947,
      "chose": 4948,
      "##opter": 4949,
      "##tha": 4950,
      "##ava": 4951,
      "unique": 4952,
      "gro": 4953,
      "abd": 4954,
      "ability": 4955,
      "allah": 4956,
      "intellig": 4957,
      "reserve": 4958,
      "agency": 4959,
      "incident": 4960,
      "becomes": 4961,
      "elements": 4962,
      "consc": 4963,
      "consist": 4964,
      "##onto": 4965,
      "1946": 4966,
      "turning": 4967,
      "passing": 4968,
      "proper": 4969,
      "returning": 4970,
      "educational": 4971,
      "##lines": 4972,
      "legs": 4973,
      "villages": 4974,
      "malays": 4975,
      "##onym": 4976,
      "performing": 4977,
      "settlement": 4978,
      "virt": 4979,
      "audience": 4980,
      "message": 4981,
      "platform": 4982,
      "responsible": 4983,
      "habit": 4984,
      "kitchen": 4985,
      "interpret": 4986,
      "5th": 4987,
      "73": 4988,
      "bull": 4989,
      "fash": 4990,
      "hart": 4991,
      "ku": 4992,
      "kil": 4993,
      "lov": 4994,
      "load": 4995,
      "nag": 4996,
      "tast": 4997,
      "wel": 4998,
      "wake": 4999,
      "wings": 5000,
      "yards": 5001,
      "##bell": 5002,
      "##bourn": 5003,
      "##kee": 5004,
      "##ye": 5005,
      "##water": 5006,
      "##77": 5007,
      "##onia": 5008,
      "##orro": 5009,
      "inner": 5010,
      "##ality": 5011,
      "anderson": 5012,
      "tokyo": 5013,
      "##oman": 5014,
      "reject": 5015,
      "alab": 5016,
      "prote": 5017,
      "bear": 5018,
      "##umped": 5019,
      "recomm": 5020,
      "usa": 5021,
      "offers": 5022,
      "quant": 5023,
      "dise": 5024,
      "phill": 5025,
      "write": 5026,
      "##ocket": 5027,
      "anna": 5028,
      "check": 5029,
      "1921": 5030,
      "humans": 5031,
      "continues": 5032,
      "letters": 5033,
      "raj": 5034,
      "campus": 5035,
      "advanced": 5036,
      "solo": 5037,
      "easily": 5038,
      "representative": 5039,
      "levels": 5040,
      "connected": 5041,
      "critics": 5042,
      "economy": 5043,
      "wilson": 5044,
      "robin": 5045,
      "argent": 5046,
      "toronto": 5047,
      "absol": 5048,
      "surrounding": 5049,
      "declared": 5050,
      "jacob": 5051,
      "category": 5052,
      "correct": 5053,
      "dipl": 5054,
      "elizabeth": 5055,
      "bibliography": 5056,
      "##bourne": 5057,
      "bart": 5058,
      "dj": 5059,
      "das": 5060,
      "lor": 5061,
      "lit": 5062,
      "merg": 5063,
      "sv": 5064,
      "som": 5065,
      "tu": 5066,
      "ward": 5067,
      "##come": 5068,
      "##uation": 5069,
      "##ilton": 5070,
      "thro": 5071,
      "##iva": 5072,
      "rear": 5073,
      "chile": 5074,
      "##ections": 5075,
      "##ouri": 5076,
      "column": 5077,
      "poland": 5078,
      "seeing": 5079,
      "calling": 5080,
      "owner": 5081,
      "barb": 5082,
      "mathem": 5083,
      "##otten": 5084,
      "models": 5085,
      "chron": 5086,
      "walking": 5087,
      "1929": 5088,
      "operating": 5089,
      "avoid": 5090,
      "effort": 5091,
      "1913": 5092,
      "1907": 5093,
      "speaking": 5094,
      "presidential": 5095,
      "positions": 5096,
      "facilities": 5097,
      "issued": 5098,
      "billion": 5099,
      "hosted": 5100,
      "clearly": 5101,
      "cells": 5102,
      "width": 5103,
      "animal": 5104,
      "planned": 5105,
      "hawai": 5106,
      "fingers": 5107,
      "flying": 5108,
      "mobile": 5109,
      "restaurant": 5110,
      "fashion": 5111,
      "cant": 5112,
      "ches": 5113,
      "hou": 5114,
      "htt": 5115,
      "nur": 5116,
      "pool": 5117,
      "tong": 5118,
      "wet": 5119,
      "##com": 5120,
      "##mill": 5121,
      "##sk": 5122,
      "frame": 5123,
      "orb": 5124,
      "enfor": 5125,
      "sciences": 5126,
      "cris": 5127,
      "residents": 5128,
      "colspan": 5129,
      "aged": 5130,
      "strength": 5131,
      "cape": 5132,
      "songwr": 5133,
      "1932": 5134,
      "1934": 5135,
      "##atures": 5136,
      "officially": 5137,
      "organized": 5138,
      "britain": 5139,
      "resulting": 5140,
      "illin": 5141,
      "finding": 5142,
      "rooms": 5143,
      "palace": 5144,
      "representatives": 5145,
      "labour": 5146,
      "pressure": 5147,
      "journey": 5148,
      "defeat": 5149,
      "activity": 5150,
      "losing": 5151,
      "beauty": 5152,
      "leadership": 5153,
      "nominated": 5154,
      "vehicle": 5155,
      "accompan": 5156,
      "dynasty": 5157,
      "portugal": 5158,
      "entrance": 5159,
      "partnership": 5160,
      "americans": 5161,
      "gor": 5162,
      "gord": 5163,
      "hid": 5164,
      "hits": 5165,
      "jur": 5166,
      "jazz": 5167,
      "lt": 5168,
      "mp": 5169,
      "ment": 5170,
      "sie": 5171,
      "##cel": 5172,
      "##oir": 5173,
      "##mont": 5174,
      "##bled": 5175,
      "##zz": 5176,
      "##erb": 5177,
      "##atus": 5178,
      "thunder": 5179,
      "##oti": 5180,
      "freder": 5181,
      "##agn": 5182,
      "comic": 5183,
      "##essing": 5184,
      "##apore": 5185,
      "##akh": 5186,
      "unable": 5187,
      "##ghan": 5188,
      "##elling": 5189,
      "gran": 5190,
      "aband": 5191,
      "scen": 5192,
      "script": 5193,
      "residence": 5194,
      "flag": 5195,
      "prefer": 5196,
      "175": 5197,
      "median": 5198,
      "wants": 5199,
      "musician": 5200,
      "socorro": 5201,
      "1925": 5202,
      "proposed": 5203,
      "missouri": 5204,
      "designated": 5205,
      "1914": 5206,
      "ern": 5207,
      "jeff": 5208,
      "cambridge": 5209,
      "pleas": 5210,
      "stephen": 5211,
      "merch": 5212,
      "homes": 5213,
      "bulgar": 5214,
      "renamed": 5215,
      "methods": 5216,
      "opposite": 5217,
      "turkish": 5218,
      "candidate": 5219,
      "institutions": 5220,
      "criminal": 5221,
      "prominent": 5222,
      "nuclear": 5223,
      "rifle": 5224,
      "##western": 5225,
      "53": 5226,
      "dc": 5227,
      "kur": 5228,
      "lan": 5229,
      "por": 5230,
      "pir": 5231,
      "powers": 5232,
      "pushed": 5233,
      "rib": 5234,
      "tight": 5235,
      "tied": 5236,
      "tony": 5237,
      "wish": 5238,
      "witness": 5239,
      "##25": 5240,
      "##load": 5241,
      "##da": 5242,
      "##gal": 5243,
      "##ito": 5244,
      "thick": 5245,
      "##urches": 5246,
      "##owed": 5247,
      "##igg": 5248,
      "##osis": 5249,
      "##osph": 5250,
      "neither": 5251,
      "##iform": 5252,
      "agent": 5253,
      "contain": 5254,
      "##athan": 5255,
      "##ensis": 5256,
      "joh": 5257,
      "parall": 5258,
      "guide": 5259,
      "anyway": 5260,
      "accident": 5261,
      "remix": 5262,
      "knows": 5263,
      "ending": 5264,
      "heads": 5265,
      "generation": 5266,
      "120": 5267,
      "internet": 5268,
      "basis": 5269,
      "basic": 5270,
      "##lined": 5271,
      "shortly": 5272,
      "supporting": 5273,
      "types": 5274,
      "##chester": 5275,
      "sites": 5276,
      "seems": 5277,
      "southeast": 5278,
      "ukrain": 5279,
      "uncle": 5280,
      "performances": 5281,
      "participated": 5282,
      "understanding": 5283,
      "launch": 5284,
      "animals": 5285,
      "answered": 5286,
      "liberal": 5287,
      "suggest": 5288,
      "literature": 5289,
      "ethn": 5290,
      "surprised": 5291,
      "measure": 5292,
      "weapons": 5293,
      "carrying": 5294,
      "risk": 5295,
      "gymn": 5296,
      "arthur": 5297,
      "headquarters": 5298,
      "lyrics": 5299,
      "saturday": 5300,
      "alabama": 5301,
      "300": 5302,
      "ax": 5303,
      "bh": 5304,
      "baker": 5305,
      "cel": 5306,
      "cad": 5307,
      "dick": 5308,
      "jay": 5309,
      "ky": 5310,
      "mond": 5311,
      "oreg": 5312,
      "util": 5313,
      "veter": 5314,
      "wound": 5315,
      "##21": 5316,
      "##lus": 5317,
      "##lies": 5318,
      "##laim": 5319,
      "##do": 5320,
      "##67": 5321,
      "##jo": 5322,
      "##oral": 5323,
      "##ione": 5324,
      "##oms": 5325,
      "##tering": 5326,
      "prix": 5327,
      "##oses": 5328,
      "churches": 5329,
      "##aine": 5330,
      "##aki": 5331,
      "lew": 5332,
      "enemy": 5333,
      "amate": 5334,
      "wealth": 5335,
      "scale": 5336,
      "recip": 5337,
      "##orne": 5338,
      "##ensity": 5339,
      "buy": 5340,
      "knowing": 5341,
      "colleges": 5342,
      "1951": 5343,
      "##attle": 5344,
      "defend": 5345,
      "metrop": 5346,
      "1922": 5347,
      "pointed": 5348,
      "publications": 5349,
      "stret": 5350,
      "1912": 5351,
      "archae": 5352,
      "occasion": 5353,
      "typically": 5354,
      "conditions": 5355,
      "huge": 5356,
      "identity": 5357,
      "aware": 5358,
      "negative": 5359,
      "composer": 5360,
      "challeng": 5361,
      "sweet": 5362,
      "doubles": 5363,
      "beside": 5364,
      "drums": 5365,
      "philippines": 5366,
      "begins": 5367,
      "queensland": 5368,
      "instrument": 5369,
      "taylor": 5370,
      "advantage": 5371,
      "dakota": 5372,
      "74": 5373,
      "98": 5374,
      "gi": 5375,
      "giant": 5376,
      "ira": 5377,
      "liver": 5378,
      "nom": 5379,
      "pure": 5380,
      "##cy": 5381,
      "##mit": 5382,
      "##aver": 5383,
      "##town": 5384,
      "##bre": 5385,
      "##30": 5386,
      "##war": 5387,
      "##eness": 5388,
      "##asa": 5389,
      "andre": 5390,
      "##osh": 5391,
      "##agh": 5392,
      "comfort": 5393,
      "##iph": 5394,
      "advert": 5395,
      "relief": 5396,
      "joy": 5397,
      "desk": 5398,
      "strang": 5399,
      "proceed": 5400,
      "phase": 5401,
      "theme": 5402,
      "##weight": 5403,
      "retire": 5404,
      "178": 5405,
      "singapore": 5406,
      "##enna": 5407,
      "specif": 5408,
      "providing": 5409,
      "obl": 5410,
      "##otte": 5411,
      "skills": 5412,
      "2022": 5413,
      "1920": 5414,
      "steam": 5415,
      "divided": 5416,
      "classic": 5417,
      "receive": 5418,
      "entry": 5419,
      "technical": 5420,
      "painting": 5421,
      "explained": 5422,
      "effective": 5423,
      "nether": 5424,
      "affili": 5425,
      "heaven": 5426,
      "semi": 5427,
      "constitut": 5428,
      "focused": 5429,
      "colorado": 5430,
      "situated": 5431,
      "athletic": 5432,
      "santa": 5433,
      "colonel": 5434,
      "rapid": 5435,
      "medicine": 5436,
      "seventh": 5437,
      "tropical": 5438,
      "400": 5439,
      "59": 5440,
      "ale": 5441,
      "bc": 5442,
      "bun": 5443,
      "dust": 5444,
      "golf": 5445,
      "jord": 5446,
      "lip": 5447,
      "mental": 5448,
      "nest": 5449,
      "vinc": 5450,
      "wis": 5451,
      "zh": 5452,
      "##iques": 5453,
      "##bol": 5454,
      "##oration": 5455,
      "##etery": 5456,
      "sty": 5457,
      "stuff": 5458,
      "priest": 5459,
      "fred": 5460,
      "##usal": 5461,
      "##agu": 5462,
      "##estic": 5463,
      "##unct": 5464,
      "notice": 5465,
      "worry": 5466,
      "clin": 5467,
      "weather": 5468,
      "containing": 5469,
      "teeth": 5470,
      "strik": 5471,
      "decades": 5472,
      "guess": 5473,
      "finish": 5474,
      "warri": 5475,
      "southwest": 5476,
      "armed": 5477,
      "1927": 5478,
      "classical": 5479,
      "starring": 5480,
      "competitions": 5481,
      "solid": 5482,
      "telling": 5483,
      "faced": 5484,
      "claims": 5485,
      "etc": 5486,
      "introduction": 5487,
      "duty": 5488,
      "learning": 5489,
      "escape": 5490,
      "entirely": 5491,
      "picked": 5492,
      "legislative": 5493,
      "exhibition": 5494,
      "wearing": 5495,
      "suffered": 5496,
      "expanded": 5497,
      "determined": 5498,
      "extrem": 5499,
      "bronze": 5500,
      "shadow": 5501,
      "whispered": 5502,
      "battalion": 5503,
      "cemetery": 5504,
      "illinois": 5505,
      "oregon": 5506,
      "69": 5507,
      "dod": 5508,
      "fought": 5509,
      "gained": 5510,
      "lis": 5511,
      "ms": 5512,
      "pitt": 5513,
      "rough": 5514,
      "sick": 5515,
      "tib": 5516,
      "wy": 5517,
      "##right": 5518,
      "##the": 5519,
      "##29": 5520,
      "##27": 5521,
      "##gas": 5522,
      "##ashed": 5523,
      "##amin": 5524,
      "##olved": 5525,
      "rever": 5526,
      "whit": 5527,
      "##aints": 5528,
      "##una": 5529,
      "shout": 5530,
      "lex": 5531,
      "wheel": 5532,
      "compr": 5533,
      "scout": 5534,
      "##ordin": 5535,
      "colour": 5536,
      "dragon": 5537,
      "reference": 5538,
      "musc": 5539,
      "howard": 5540,
      "minim": 5541,
      "##azy": 5542,
      "syd": 5543,
      "studios": 5544,
      "slov": 5545,
      "170": 5546,
      "northwest": 5547,
      "baron": 5548,
      "13th": 5549,
      "publication": 5550,
      "##ographic": 5551,
      "silent": 5552,
      "holly": 5553,
      "sounds": 5554,
      "insurance": 5555,
      "officials": 5556,
      "critical": 5557,
      "republican": 5558,
      "khan": 5559,
      "existence": 5560,
      "favour": 5561,
      "achiev": 5562,
      "translation": 5563,
      "touchdown": 5564,
      "votes": 5565,
      "vehicles": 5566,
      "philosophy": 5567,
      "adopted": 5568,
      "haven": 5569,
      "imperial": 5570,
      "split": 5571,
      "resources": 5572,
      "permanent": 5573,
      "specifically": 5574,
      "79": 5575,
      "bent": 5576,
      "bure": 5577,
      "divers": 5578,
      "fans": 5579,
      "kon": 5580,
      "lanc": 5581,
      "mi": 5582,
      "mall": 5583,
      "nerv": 5584,
      "rav": 5585,
      "rene": 5586,
      "ryan": 5587,
      "roles": 5588,
      "ta": 5589,
      "ty": 5590,
      "tank": 5591,
      "taught": 5592,
      "yard": 5593,
      "##cop": 5594,
      "##chers": 5595,
      "##time": 5596,
      "##how": 5597,
      "##hist": 5598,
      "##set": 5599,
      "##pet": 5600,
      "##eds": 5601,
      "##ori": 5602,
      "##alt": 5603,
      "##omer": 5604,
      "##stre": 5605,
      "reaching": 5606,
      "conqu": 5607,
      "##umber": 5608,
      "##essee": 5609,
      "##illing": 5610,
      "shif": 5611,
      "shared": 5612,
      "exped": 5613,
      "##antly": 5614,
      "##iao": 5615,
      "enr": 5616,
      "gram": 5617,
      "weak": 5618,
      "abc": 5619,
      "adam": 5620,
      "##orney": 5621,
      "otherwise": 5622,
      "applied": 5623,
      "attorney": 5624,
      "consum": 5625,
      "interested": 5626,
      "##erto": 5627,
      "calls": 5628,
      "1933": 5629,
      "communist": 5630,
      "##enez": 5631,
      "1923": 5632,
      "jane": 5633,
      "##199": 5634,
      "##ashi": 5635,
      "receiving": 5636,
      "powerful": 5637,
      "davis": 5638,
      "salv": 5639,
      "opposed": 5640,
      "honours": 5641,
      "##resp": 5642,
      "photography": 5643,
      "drawn": 5644,
      "funding": 5645,
      "papers": 5646,
      "attempted": 5647,
      "mosc": 5648,
      "sarah": 5649,
      "tennessee": 5650,
      "injury": 5651,
      "hanging": 5652,
      "schedule": 5653,
      "crowd": 5654,
      "resistance": 5655,
      "metropolitan": 5656,
      "netherlands": 5657,
      "bond": 5658,
      "cs": 5659,
      "ere": 5660,
      "gil": 5661,
      "gay": 5662,
      "kos": 5663,
      "lect": 5664,
      "migr": 5665,
      "rum": 5666,
      "si": 5667,
      "tir": 5668,
      "tests": 5669,
      "##pool": 5670,
      "##35": 5671,
      "##alk": 5672,
      "##olas": 5673,
      "stuck": 5674,
      "1900": 5675,
      "##essions": 5676,
      "##akers": 5677,
      "##oval": 5678,
      "noticed": 5679,
      "worse": 5680,
      "manner": 5681,
      "mars": 5682,
      "##ikh": 5683,
      "resc": 5684,
      "indeed": 5685,
      "phosph": 5686,
      "##orship": 5687,
      "actors": 5688,
      "universities": 5689,
      "remind": 5690,
      "##anned": 5691,
      "1941": 5692,
      "populated": 5693,
      "wins": 5694,
      "follows": 5695,
      "empt": 5696,
      "starts": 5697,
      "harm": 5698,
      "1930": 5699,
      "curt": 5700,
      "walter": 5701,
      "portra": 5702,
      "portray": 5703,
      "1915": 5704,
      "mounted": 5705,
      "difference": 5706,
      "discip": 5707,
      "typical": 5708,
      "killing": 5709,
      "fields": 5710,
      "sanct": 5711,
      "label": 5712,
      "satis": 5713,
      "ranked": 5714,
      "##umbled": 5715,
      "attacks": 5716,
      "commonly": 5717,
      "steps": 5718,
      "hurt": 5719,
      "offering": 5720,
      "physic": 5721,
      "combined": 5722,
      "masters": 5723,
      "examples": 5724,
      "widely": 5725,
      "birthday": 5726,
      "treaty": 5727,
      "domain": 5728,
      "captured": 5729,
      "conservative": 5730,
      "objects": 5731,
      "neighbour": 5732,
      "frequently": 5733,
      "pictures": 5734,
      "details": 5735,
      "banglad": 5736,
      "serbian": 5737,
      "agriculture": 5738,
      "douglas": 5739,
      "fully": 5740,
      "bangladesh": 5741,
      "46": 5742,
      "cher": 5743,
      "dum": 5744,
      "hans": 5745,
      "haz": 5746,
      "ist": 5747,
      "lob": 5748,
      "mile": 5749,
      "nam": 5750,
      "pip": 5751,
      "surn": 5752,
      "sets": 5753,
      "wisc": 5754,
      "##gb": 5755,
      "##greg": 5756,
      "##val": 5757,
      "##pm": 5758,
      "##wide": 5759,
      "##heim": 5760,
      "##alty": 5761,
      "threw": 5762,
      "##eck": 5763,
      "##uri": 5764,
      "##ocated": 5765,
      "tru": 5766,
      "trial": 5767,
      "shield": 5768,
      "exerc": 5769,
      "##sey": 5770,
      "cousin": 5771,
      "grin": 5772,
      "colomb": 5773,
      "cars": 5774,
      "coaches": 5775,
      "acts": 5776,
      "earn": 5777,
      "accomm": 5778,
      "##ancing": 5779,
      "17th": 5780,
      "contrast": 5781,
      "missed": 5782,
      "patients": 5783,
      "roads": 5784,
      "resulted": 5785,
      "advis": 5786,
      "titled": 5787,
      "historian": 5788,
      "salt": 5789,
      "paint": 5790,
      "temp": 5791,
      "device": 5792,
      "northeast": 5793,
      "qualifying": 5794,
      "fellows": 5795,
      "karl": 5796,
      "narr": 5797,
      "ancest": 5798,
      "##iliar": 5799,
      "michel": 5800,
      "software": 5801,
      "failure": 5802,
      "communications": 5803,
      "immigr": 5804,
      "concerned": 5805,
      "subsequent": 5806,
      "##works": 5807,
      "task": 5808,
      "weapon": 5809,
      "dangerous": 5810,
      "sweden": 5811,
      "dismiss": 5812,
      "vietnam": 5813,
      "gabri": 5814,
      "ultimately": 5815,
      "infantry": 5816,
      "intelligence": 5817,
      "houston": 5818,
      "moscow": 5819,
      "wiscons": 5820,
      "accommod": 5821,
      "600": 5822,
      "hann": 5823,
      "lam": 5824,
      "lud": 5825,
      "lose": 5826,
      "lane": 5827,
      "nut": 5828,
      "nap": 5829,
      "om": 5830,
      "ped": 5831,
      "pak": 5832,
      "pale": 5833,
      "sought": 5834,
      "sisters": 5835,
      "ug": 5836,
      "##ef": 5837,
      "##dd": 5838,
      "##zh": 5839,
      "##jan": 5840,
      "##onic": 5841,
      "##atics": 5842,
      "##alus": 5843,
      "##ingly": 5844,
      "thor": 5845,
      "##urg": 5846,
      "##iri": 5847,
      "##ivals": 5848,
      "cha": 5849,
      "chain": 5850,
      "chuck": 5851,
      "##thy": 5852,
      "##agen": 5853,
      "##umes": 5854,
      "##apes": 5855,
      "tra": 5856,
      "ariz": 5857,
      "##ovic": 5858,
      "shit": 5859,
      "leban": 5860,
      "orient": 5861,
      "suic": 5862,
      "sust": 5863,
      "##ortion": 5864,
      "grav": 5865,
      "clark": 5866,
      "doors": 5867,
      "playoff": 5868,
      "cole": 5869,
      "appeal": 5870,
      "desert": 5871,
      "assigned": 5872,
      "assault": 5873,
      "actual": 5874,
      "##eph": 5875,
      "##forms": 5876,
      "distinct": 5877,
      "elimin": 5878,
      "subs": 5879,
      "transform": 5880,
      "##rible": 5881,
      "lawyer": 5882,
      "controvers": 5883,
      "landing": 5884,
      "propos": 5885,
      "patri": 5886,
      "streets": 5887,
      "1910": 5888,
      "solution": 5889,
      "facility": 5890,
      "1891": 5891,
      "balance": 5892,
      "qualification": 5893,
      "coaching": 5894,
      "circuit": 5895,
      "independence": 5896,
      "journalist": 5897,
      "learn": 5898,
      "existing": 5899,
      "negoti": 5900,
      "reviews": 5901,
      "innoc": 5902,
      "opius": 5903,
      "matthew": 5904,
      "besides": 5905,
      "puerto": 5906,
      "respectively": 5907,
      "accompl": 5908,
      "pilot": 5909,
      "##friend": 5910,
      "anthony": 5911,
      "occurred": 5912,
      "constituency": 5913,
      "weren": 5914,
      "estimated": 5915,
      "coffee": 5916,
      "iraq": 5917,
      "sydney": 5918,
      "gabriel": 5919,
      "wisconsin": 5920,
      "arizona": 5921,
      "07": 5922,
      "4th": 5923,
      "ay": 5924,
      "bou": 5925,
      "bog": 5926,
      "cu": 5927,
      "cul": 5928,
      "cord": 5929,
      "ff": 5930,
      "gain": 5931,
      "gary": 5932,
      "kick": 5933,
      "nich": 5934,
      "nca": 5935,
      "phen": 5936,
      "rival": 5937,
      "sang": 5938,
      "wels": 5939,
      "##mitted": 5940,
      "##aug": 5941,
      "##tle": 5942,
      "##taining": 5943,
      "##22": 5944,
      "##bing": 5945,
      "##body": 5946,
      "##gate": 5947,
      "##kh": 5948,
      "##yard": 5949,
      "##pur": 5950,
      "##pass": 5951,
      "##wich": 5952,
      "##inburgh": 5953,
      "##atically": 5954,
      "##anz": 5955,
      "##eton": 5956,
      "##urer": 5957,
      "forth": 5958,
      "hey": 5959,
      "pri": 5960,
      "1919": 5961,
      "##cht": 5962,
      "##char": 5963,
      "anat": 5964,
      "##uma": 5965,
      "##unte": 5966,
      "truck": 5967,
      "plane": 5968,
      "brun": 5969,
      "brian": 5970,
      "##acks": 5971,
      "##elli": 5972,
      "##ogue": 5973,
      "butter": 5974,
      "afghan": 5975,
      "marie": 5976,
      "##ucc": 5977,
      "roof": 5978,
      "dram": 5979,
      "dressed": 5980,
      "##amps": 5981,
      "relax": 5982,
      "edinburgh": 5983,
      "norway": 5984,
      "##ploy": 5985,
      "smart": 5986,
      "mining": 5987,
      "serves": 5988,
      "##anne": 5989,
      "surge": 5990,
      "metres": 5991,
      "provinc": 5992,
      "invasion": 5993,
      "armen": 5994,
      "simon": 5995,
      "classes": 5996,
      "portion": 5997,
      "districts": 5998,
      "1902": 5999,
      "1906": 6000,
      "protest": 6001,
      "friendly": 6002,
      "convention": 6003,
      "1889": 6004,
      "liqu": 6005,
      "experi": 6006,
      "connection": 6007,
      "fallen": 6008,
      "horiz": 6009,
      "identified": 6010,
      "federation": 6011,
      "hamilton": 6012,
      "melbourne": 6013,
      "investigation": 6014,
      "##itzer": 6015,
      "hoped": 6016,
      "remembered": 6017,
      "fleet": 6018,
      "occupied": 6019,
      "responsibility": 6020,
      "climate": 6021,
      "application": 6022,
      "reflect": 6023,
      "grabbed": 6024,
      "www": 6025,
      "elementary": 6026,
      "trouble": 6027,
      "diplom": 6028,
      "gordon": 6029,
      "amateur": 6030,
      "ncaa": 6031,
      "welsh": 6032,
      "68": 6033,
      "beng": 6034,
      "bought": 6035,
      "bapt": 6036,
      "covers": 6037,
      "dat": 6038,
      "drew": 6039,
      "fict": 6040,
      "hunt": 6041,
      "jump": 6042,
      "mail": 6043,
      "pic": 6044,
      "sector": 6045,
      "va": 6046,
      "wre": 6047,
      "wol": 6048,
      "wag": 6049,
      "wolf": 6050,
      "##28": 6051,
      "##iot": 6052,
      "##dc": 6053,
      "##sel": 6054,
      "##wig": 6055,
      "##63": 6056,
      "##orrow": 6057,
      "##aring": 6058,
      "##ington": 6059,
      "tow": 6060,
      "stick": 6061,
      "##iro": 6062,
      "##igen": 6063,
      "consequ": 6064,
      "shir": 6065,
      "shell": 6066,
      "##okes": 6067,
      "##usted": 6068,
      "enl": 6069,
      "alliance": 6070,
      "manh": 6071,
      "sche": 6072,
      "newly": 6073,
      "resid": 6074,
      "upd": 6075,
      "knock": 6076,
      "decre": 6077,
      "somewhere": 6078,
      "##roit": 6079,
      "norman": 6080,
      "##aux": 6081,
      "preserv": 6082,
      "founding": 6083,
      "retr": 6084,
      "ends": 6085,
      "handed": 6086,
      "defined": 6087,
      "glanced": 6088,
      "thoughts": 6089,
      "larry": 6090,
      "harp": 6091,
      "1928": 6092,
      "reduced": 6093,
      "lands": 6094,
      "treas": 6095,
      "extend": 6096,
      "1917": 6097,
      "managers": 6098,
      "tech": 6099,
      "volunte": 6100,
      "mole": 6101,
      "visual": 6102,
      "painters": 6103,
      "explain": 6104,
      "holds": 6105,
      "falls": 6106,
      "##standing": 6107,
      "investment": 6108,
      "keeping": 6109,
      "constitution": 6110,
      "commissioned": 6111,
      "hearing": 6112,
      "bullet": 6113,
      "budget": 6114,
      "graduate": 6115,
      "waters": 6116,
      "admir": 6117,
      "recognized": 6118,
      "lifted": 6119,
      "broadcasting": 6120,
      "israeli": 6121,
      "behavi": 6122,
      "hunter": 6123,
      "charlie": 6124,
      "installed": 6125,
      "converted": 6126,
      "schedul": 6127,
      "disappear": 6128,
      "freedom": 6129,
      "muslim": 6130,
      "caval": 6131,
      "throat": 6132,
      "ltd": 6133,
      "parallel": 6134,
      "lewis": 6135,
      "jordan": 6136,
      "coc": 6137,
      "gosp": 6138,
      "kong": 6139,
      "lp": 6140,
      "lap": 6141,
      "ni": 6142,
      "sid": 6143,
      "tip": 6144,
      "zero": 6145,
      "##ran": 6146,
      "##oh": 6147,
      "##mans": 6148,
      "##mouth": 6149,
      "##bish": 6150,
      "##di": 6151,
      "##dam": 6152,
      "##ses": 6153,
      "##sch": 6154,
      "##76": 6155,
      "##edia": 6156,
      "##ares": 6157,
      "##elve": 6158,
      "##ading": 6159,
      "##etic": 6160,
      "height": 6161,
      "##lyn": 6162,
      "alco": 6163,
      "##osa": 6164,
      "dear": 6165,
      "shore": 6166,
      "execut": 6167,
      "##ante": 6168,
      "spend": 6169,
      "brid": 6170,
      "18th": 6171,
      "marked": 6172,
      "scoring": 6173,
      "cro": 6174,
      "knight": 6175,
      "twelve": 6176,
      "conte": 6177,
      "blow": 6178,
      "centuries": 6179,
      "relatively": 6180,
      "flu": 6181,
      "param": 6182,
      "guys": 6183,
      "guards": 6184,
      "wars": 6185,
      "universal": 6186,
      "symp": 6187,
      "##ologists": 6188,
      "defunct": 6189,
      "johnny": 6190,
      "breast": 6191,
      "breaking": 6192,
      "showing": 6193,
      "##engers": 6194,
      "##195": 6195,
      "passenger": 6196,
      "arrest": 6197,
      "miller": 6198,
      "adventure": 6199,
      "promote": 6200,
      "philip": 6201,
      "1905": 6202,
      "techniques": 6203,
      "describes": 6204,
      "iranian": 6205,
      "painter": 6206,
      "weekend": 6207,
      "territor": 6208,
      "request": 6209,
      "excell": 6210,
      "crossing": 6211,
      "camera": 6212,
      "photograp": 6213,
      "guns": 6214,
      "semif": 6215,
      "participate": 6216,
      "reasons": 6217,
      "composition": 6218,
      "medalists": 6219,
      "materials": 6220,
      "applications": 6221,
      "ibn": 6222,
      "conducted": 6223,
      "prepared": 6224,
      "billy": 6225,
      "cinema": 6226,
      "incorporated": 6227,
      "residential": 6228,
      "76": 6229,
      "88": 6230,
      "95": 6231,
      "dele": 6232,
      "eug": 6233,
      "eric": 6234,
      "egg": 6235,
      "fo": 6236,
      "folk": 6237,
      "hes": 6238,
      "hate": 6239,
      "hong": 6240,
      "ian": 6241,
      "lut": 6242,
      "pas": 6243,
      "peng": 6244,
      "pocket": 6245,
      "tab": 6246,
      "##rac": 6247,
      "##rence": 6248,
      "##nan": 6249,
      "##uge": 6250,
      "##bl": 6251,
      "##vi": 6252,
      "##je": 6253,
      "##heas": 6254,
      "theater": 6255,
      "##edy": 6256,
      "inher": 6257,
      "##itr": 6258,
      "tob": 6259,
      "##omy": 6260,
      "##idi": 6261,
      "fried": 6262,
      "##osl": 6263,
      "##verty": 6264,
      "##agan": 6265,
      "##eston": 6266,
      "depress": 6267,
      "arena": 6268,
      "spell": 6269,
      "spoken": 6270,
      "##sex": 6271,
      "##eller": 6272,
      "graph": 6273,
      "cler": 6274,
      "cloth": 6275,
      "clothes": 6276,
      "manif": 6277,
      "acid": 6278,
      "flow": 6279,
      "flowers": 6280,
      "parks": 6281,
      "decade": 6282,
      "phr": 6283,
      "somehow": 6284,
      "mini": 6285,
      "link": 6286,
      "consult": 6287,
      "interior": 6288,
      "poverty": 6289,
      "##ologies": 6290,
      "surre": 6291,
      "reports": 6292,
      "glad": 6293,
      "16th": 6294,
      "1931": 6295,
      "##redited": 6296,
      "runner": 6297,
      "angels": 6298,
      "detroit": 6299,
      "1916": 6300,
      "magnet": 6301,
      "standards": 6302,
      "refers": 6303,
      "refere": 6304,
      "##apping": 6305,
      "honest": 6306,
      "iran": 6307,
      "##hammad": 6308,
      "qualified": 6309,
      "falling": 6310,
      "indiana": 6311,
      "importance": 6312,
      "loan": 6313,
      "tomorrow": 6314,
      "liked": 6315,
      "copies": 6316,
      "establishment": 6317,
      "coastal": 6318,
      "parliamentary": 6319,
      "bowl": 6320,
      "employees": 6321,
      "recognition": 6322,
      "candidates": 6323,
      "emergency": 6324,
      "swedish": 6325,
      "antonio": 6326,
      "licens": 6327,
      "fabric": 6328,
      "##while": 6329,
      "promotion": 6330,
      "apparently": 6331,
      "responded": 6332,
      "neighborhood": 6333,
      "sighed": 6334,
      "disease": 6335,
      "empty": 6336,
      "truly": 6337,
      "provincial": 6338,
      "99": 6339,
      "bic": 6340,
      "jin": 6341,
      "ka": 6342,
      "lac": 6343,
      "lod": 6344,
      "nan": 6345,
      "pod": 6346,
      "pear": 6347,
      "pink": 6348,
      "sri": 6349,
      "soph": 6350,
      "tears": 6351,
      "vel": 6352,
      "vary": 6353,
      "venez": 6354,
      "ze": 6355,
      "##uin": 6356,
      "##uese": 6357,
      "##dles": 6358,
      "##selves": 6359,
      "##gor": 6360,
      "##gers": 6361,
      "##eral": 6362,
      "##aled": 6363,
      "##oli": 6364,
      "##olished": 6365,
      "waste": 6366,
      "alph": 6367,
      "##opher": 6368,
      "orange": 6369,
      "##anta": 6370,
      "##iah": 6371,
      "##udi": 6372,
      "worship": 6373,
      "amend": 6374,
      "##hedral": 6375,
      "twin": 6376,
      "contribut": 6377,
      "teen": 6378,
      "teaching": 6379,
      "noise": 6380,
      "indones": 6381,
      "flower": 6382,
      "flash": 6383,
      "prefect": 6384,
      "finance": 6385,
      "gene": 6386,
      "distingu": 6387,
      "##leton": 6388,
      "locations": 6389,
      "singh": 6390,
      "recordings": 6391,
      "pope": 6392,
      "swiss": 6393,
      "directors": 6394,
      "listen": 6395,
      "obtained": 6396,
      "chen": 6397,
      "courts": 6398,
      "expans": 6399,
      "revol": 6400,
      "developing": 6401,
      "anger": 6402,
      "delay": 6403,
      "##uki": 6404,
      "1897": 6405,
      "1885": 6406,
      "successfully": 6407,
      "representing": 6408,
      "equival": 6409,
      "meanwhile": 6410,
      "quebec": 6411,
      "massive": 6412,
      "darkness": 6413,
      "productions": 6414,
      "multi": 6415,
      "views": 6416,
      "causes": 6417,
      "causing": 6418,
      "testing": 6419,
      "jerusal": 6420,
      "regularly": 6421,
      "violence": 6422,
      "frequency": 6423,
      "orders": 6424,
      "concerns": 6425,
      "scholar": 6426,
      "observed": 6427,
      "chemical": 6428,
      "wrestling": 6429,
      "conversation": 6430,
      "swimming": 6431,
      "temperature": 6432,
      "wedding": 6433,
      "cabinet": 6434,
      "arkansas": 6435,
      "crisis": 6436,
      "constitutional": 6437,
      "vincent": 6438,
      "pitts": 6439,
      "bureau": 6440,
      "##heastern": 6441,
      "jerusalem": 6442,
      "51": 6443,
      "dir": 6444,
      "daugh": 6445,
      "fu": 6446,
      "fishing": 6447,
      "hud": 6448,
      "hook": 6449,
      "miam": 6450,
      "nad": 6451,
      "nancy": 6452,
      "oak": 6453,
      "option": 6454,
      "pond": 6455,
      "pitch": 6456,
      "ric": 6457,
      "rush": 6458,
      "tag": 6459,
      "tie": 6460,
      "tai": 6461,
      "yang": 6462,
      "##mus": 6463,
      "##23": 6464,
      "##44": 6465,
      "##anth": 6466,
      "##aro": 6467,
      "##acle": 6468,
      "##oly": 6469,
      "##etime": 6470,
      "bears": 6471,
      "chick": 6472,
      "##umin": 6473,
      "nev": 6474,
      "shan": 6475,
      "shirt": 6476,
      "##orted": 6477,
      "meat": 6478,
      "amy": 6479,
      "abr": 6480,
      "afra": 6481,
      "compil": 6482,
      "##owned": 6483,
      "crack": 6484,
      "craft": 6485,
      "resolution": 6486,
      "cargo": 6487,
      "##angel": 6488,
      "appre": 6489,
      "string": 6490,
      "dece": 6491,
      "minnes": 6492,
      "lincol": 6493,
      "##etty": 6494,
      "belief": 6495,
      "defence": 6496,
      "creating": 6497,
      "12th": 6498,
      "proved": 6499,
      "societ": 6500,
      "depict": 6501,
      "maintained": 6502,
      "shoulders": 6503,
      "descent": 6504,
      "emphas": 6505,
      "campbell": 6506,
      "producing": 6507,
      "possibility": 6508,
      "versions": 6509,
      "waited": 6510,
      "tourism": 6511,
      "factory": 6512,
      "factors": 6513,
      "bald": 6514,
      "billboard": 6515,
      "camer": 6516,
      "settle": 6517,
      "panel": 6518,
      "samuel": 6519,
      "conservation": 6520,
      "regarded": 6521,
      "dinner": 6522,
      "shooting": 6523,
      "bringing": 6524,
      "manufacturing": 6525,
      "unlike": 6526,
      "portuguese": 6527,
      "enjoyed": 6528,
      "poetry": 6529,
      "kelly": 6530,
      "scholarship": 6531,
      "mystery": 6532,
      "http": 6533,
      "daughters": 6534,
      "minnesota": 6535,
      "lincoln": 6536,
      "bah": 6537,
      "bible": 6538,
      "cable": 6539,
      "cock": 6540,
      "fit": 6541,
      "fold": 6542,
      "hip": 6543,
      "hide": 6544,
      "kaz": 6545,
      "kansas": 6546,
      "loy": 6547,
      "mason": 6548,
      "paus": 6549,
      "sed": 6550,
      "sque": 6551,
      "tent": 6552,
      "vision": 6553,
      "waves": 6554,
      "##lusion": 6555,
      "##ken": 6556,
      "##vd": 6557,
      "##view": 6558,
      "##pat": 6559,
      "##33": 6560,
      "##49": 6561,
      "##72": 6562,
      "##orus": 6563,
      "##itled": 6564,
      "##asy": 6565,
      "##icing": 6566,
      "##icut": 6567,
      "##rell": 6568,
      "##ilst": 6569,
      "##eley": 6570,
      "thail": 6571,
      "##ache": 6572,
      "##otes": 6573,
      "##igue": 6574,
      "##iments": 6575,
      "##istol": 6576,
      "##alled": 6577,
      "aren": 6578,
      "shape": 6579,
      "shaped": 6580,
      "spac": 6581,
      "bra": 6582,
      "##oking": 6583,
      "allen": 6584,
      "margar": 6585,
      "adams": 6586,
      "intelle": 6587,
      "cry": 6588,
      "carter": 6589,
      "contained": 6590,
      "evolution": 6591,
      "index": 6592,
      "##ugged": 6593,
      "assass": 6594,
      "throne": 6595,
      "anymore": 6596,
      "accused": 6597,
      "slam": 6598,
      "collected": 6599,
      "persp": 6600,
      "160": 6601,
      "##phy": 6602,
      "harbor": 6603,
      "##ifications": 6604,
      "matters": 6605,
      "maintain": 6606,
      "expos": 6607,
      "turns": 6608,
      "passage": 6609,
      "mississ": 6610,
      "stream": 6611,
      "extensive": 6612,
      "##ylan": 6613,
      "talked": 6614,
      "magn": 6615,
      "1909": 6616,
      "refused": 6617,
      "1892": 6618,
      "1887": 6619,
      "explos": 6620,
      "statement": 6621,
      "limit": 6622,
      "routes": 6623,
      "hosts": 6624,
      "drawing": 6625,
      "assistance": 6626,
      "circle": 6627,
      "expressed": 6628,
      "oliver": 6629,
      "attempts": 6630,
      "costs": 6631,
      "renov": 6632,
      "stayed": 6633,
      "admitted": 6634,
      "properties": 6635,
      "opin": 6636,
      "hungarian": 6637,
      "reaction": 6638,
      "ninth": 6639,
      "brazilian": 6640,
      "alleged": 6641,
      "nobody": 6642,
      "sacr": 6643,
      "harvard": 6644,
      "repeated": 6645,
      "electronic": 6646,
      "sergeant": 6647,
      "conscious": 6648,
      "phillips": 6649,
      "hawaii": 6650,
      "nurse": 6651,
      "abandoned": 6652,
      "johann": 6653,
      "hollywood": 6654,
      "surname": 6655,
      "suicide": 6656,
      "miami": 6657,
      "afraid": 6658,
      "thailand": 6659,
      "intellect": 6660,
      "05": 6661,
      "41": 6662,
      "bail": 6663,
      "berg": 6664,
      "cc": 6665,
      "dating": 6666,
      "fasc": 6667,
      "fighter": 6668,
      "hub": 6669,
      "horn": 6670,
      "jar": 6671,
      "luck": 6672,
      "nat": 6673,
      "nhl": 6674,
      "ry": 6675,
      "sara": 6676,
      "sections": 6677,
      "tul": 6678,
      "tack": 6679,
      "tang": 6680,
      "voted": 6681,
      "##con": 6682,
      "##can": 6683,
      "##oes": 6684,
      "##mes": 6685,
      "##uate": 6686,
      "##gs": 6687,
      "##65": 6688,
      "theor": 6689,
      "##inces": 6690,
      "##oni": 6691,
      "##aly": 6692,
      "##rel": 6693,
      "ford": 6694,
      "forever": 6695,
      "hem": 6696,
      "isol": 6697,
      "##ocol": 6698,
      "dean": 6699,
      "leaned": 6700,
      "orth": 6701,
      "##ishment": 6702,
      "allows": 6703,
      "marit": 6704,
      "knights": 6705,
      "driving": 6706,
      "blog": 6707,
      "evans": 6708,
      "overl": 6709,
      "##ugu": 6710,
      "bund": 6711,
      "##ooth": 6712,
      "artistic": 6713,
      "accur": 6714,
      "seek": 6715,
      "consisted": 6716,
      "familiar": 6717,
      "mediev": 6718,
      "creative": 6719,
      "laur": 6720,
      "barely": 6721,
      "harris": 6722,
      "##198": 6723,
      "controlled": 6724,
      "busy": 6725,
      "restrict": 6726,
      "archbish": 6727,
      "1904": 6728,
      "refuge": 6729,
      "protected": 6730,
      "lights": 6731,
      "silence": 6732,
      "facing": 6733,
      "1893": 6734,
      "visitors": 6735,
      "1886": 6736,
      "##ippi": 6737,
      "functions": 6738,
      "ballet": 6739,
      "weekly": 6740,
      "changing": 6741,
      "1879": 6742,
      "bedroom": 6743,
      "cathedral": 6744,
      "funds": 6745,
      "wilhel": 6746,
      "combination": 6747,
      "domestic": 6748,
      "employed": 6749,
      "policies": 6750,
      "athletics": 6751,
      "channels": 6752,
      "borough": 6753,
      "doubt": 6754,
      "surprise": 6755,
      "surrounded": 6756,
      "teachers": 6757,
      "tunnel": 6758,
      "connecticut": 6759,
      "bodies": 6760,
      "alfred": 6761,
      "malaysia": 6762,
      "hidden": 6763,
      "gymnast": 6764,
      "tibet": 6765,
      "experienced": 6766,
      "fictional": 6767,
      "context": 6768,
      "surrender": 6769,
      "venezuel": 6770,
      "08": 6771,
      "09": 6772,
      "cited": 6773,
      "echo": 6774,
      "fan": 6775,
      "fel": 6776,
      "hut": 6777,
      "hors": 6778,
      "hired": 6779,
      "kor": 6780,
      "kab": 6781,
      "kang": 6782,
      "lon": 6783,
      "liga": 6784,
      "mant": 6785,
      "nc": 6786,
      "nas": 6787,
      "nfl": 6788,
      "pound": 6789,
      "pione": 6790,
      "rud": 6791,
      "rick": 6792,
      "rising": 6793,
      "rena": 6794,
      "sung": 6795,
      "saints": 6796,
      "tone": 6797,
      "vent": 6798,
      "##ront": 6799,
      "##ux": 6800,
      "##iya": 6801,
      "##bow": 6802,
      "##life": 6803,
      "##din": 6804,
      "##ho": 6805,
      "##vr": 6806,
      "##47": 6807,
      "##iner": 6808,
      "##arr": 6809,
      "inaug": 6810,
      "##alo": 6811,
      "##isa": 6812,
      "##icial": 6813,
      "##omot": 6814,
      "##olia": 6815,
      "##ecess": 6816,
      "stom": 6817,
      "##ayer": 6818,
      "asks": 6819,
      "reign": 6820,
      "whilst": 6821,
      "##ocese": 6822,
      "trophy": 6823,
      "shah": 6824,
      "##oked": 6825,
      "worried": 6826,
      "adap": 6827,
      "craw": 6828,
      "##ucing": 6829,
      "canal": 6830,
      "contributed": 6831,
      "coordin": 6832,
      "noble": 6833,
      "file": 6834,
      "desire": 6835,
      "quad": 6836,
      "##issance": 6837,
      "guid": 6838,
      "warren": 6839,
      "universe": 6840,
      "##anche": 6841,
      "charged": 6842,
      "singers": 6843,
      "embr": 6844,
      "switzer": 6845,
      "gender": 6846,
      "offices": 6847,
      "expensive": 6848,
      "profile": 6849,
      "treated": 6850,
      "godd": 6851,
      "1911": 6852,
      "stands": 6853,
      "ille": 6854,
      "programming": 6855,
      "visiting": 6856,
      "convinc": 6857,
      "apost": 6858,
      "##onomy": 6859,
      "##boards": 6860,
      "devil": 6861,
      "businesses": 6862,
      "institution": 6863,
      "baltim": 6864,
      "horror": 6865,
      "worksh": 6866,
      "allowing": 6867,
      "processes": 6868,
      "wooden": 6869,
      "princip": 6870,
      "discovery": 6871,
      "spiritual": 6872,
      "prisoners": 6873,
      "occupation": 6874,
      "banks": 6875,
      "##ascar": 6876,
      "criticism": 6877,
      "utah": 6878,
      "considerable": 6879,
      "approved": 6880,
      "suffering": 6881,
      "danger": 6882,
      "thousands": 6883,
      "impression": 6884,
      "egyptian": 6885,
      "briefly": 6886,
      "kentucky": 6887,
      "vessels": 6888,
      "cerem": 6889,
      "merged": 6890,
      "scenes": 6891,
      "ethnic": 6892,
      "retirement": 6893,
      "##stream": 6894,
      "liquid": 6895,
      "equivalent": 6896,
      "pittsburgh": 6897,
      "mississippi": 6898,
      "medieval": 6899,
      "baltimore": 6900,
      "01": 6901,
      "72": 6902,
      "aj": 6903,
      "danny": 6904,
      "density": 6905,
      "dylan": 6906,
      "fern": 6907,
      "gently": 6908,
      "ht": 6909,
      "kin": 6910,
      "locked": 6911,
      "nose": 6912,
      "nash": 6913,
      "osc": 6914,
      "roc": 6915,
      "rare": 6916,
      "sale": 6917,
      "till": 6918,
      "vamp": 6919,
      "wire": 6920,
      "##rom": 6921,
      "##rad": 6922,
      "##53": 6923,
      "##bu": 6924,
      "##fall": 6925,
      "##fast": 6926,
      "##father": 6927,
      "##kar": 6928,
      "##vant": 6929,
      "##48": 6930,
      "inhab": 6931,
      "##isms": 6932,
      "##inger": 6933,
      "##ingham": 6934,
      "##itable": 6935,
      "##ece": 6936,
      "##oto": 6937,
      "##iration": 6938,
      "##igation": 6939,
      "##lying": 6940,
      "asking": 6941,
      "##chang": 6942,
      "frag": 6943,
      "anch": 6944,
      "chanc": 6945,
      "##ulate": 6946,
      "uniform": 6947,
      "shakes": 6948,
      "plus": 6949,
      "##ategy": 6950,
      "##ardo": 6951,
      "grave": 6952,
      "clan": 6953,
      "outstanding": 6954,
      "agents": 6955,
      "tea": 6956,
      "blind": 6957,
      "desper": 6958,
      "flav": 6959,
      "strateg": 6960,
      "strategy": 6961,
      "backing": 6962,
      "regions": 6963,
      "##iversary": 6964,
      "formula": 6965,
      "##aze": 6966,
      "imposs": 6967,
      "instruction": 6968,
      "instruct": 6969,
      "1950s": 6970,
      "subd": 6971,
      "filmed": 6972,
      "donald": 6973,
      "belgian": 6974,
      "transition": 6975,
      "invited": 6976,
      "swift": 6977,
      "anniversary": 6978,
      "jung": 6979,
      "novels": 6980,
      "courses": 6981,
      "walker": 6982,
      "##ographical": 6983,
      "staring": 6984,
      "aviation": 6985,
      "eps": 6986,
      "raid": 6987,
      "raising": 6988,
      "prompt": 6989,
      "petr": 6990,
      "convent": 6991,
      "victims": 6992,
      "exclus": 6993,
      "damn": 6994,
      "sentenced": 6995,
      "femin": 6996,
      "setting": 6997,
      "earliest": 6998,
      "photo": 6999,
      "destruction": 7000,
      "practices": 7001,
      "hurrican": 7002,
      "audio": 7003,
      "guitarist": 7004,
      "rebu": 7005,
      "improve": 7006,
      "improved": 7007,
      "interesting": 7008,
      "benj": 7009,
      "figures": 7010,
      "layer": 7011,
      "existed": 7012,
      "translated": 7013,
      "collections": 7014,
      "terminal": 7015,
      "ambass": 7016,
      "threatened": 7017,
      "patrick": 7018,
      "environmental": 7019,
      "credits": 7020,
      "definition": 7021,
      "atlantic": 7022,
      "succeeded": 7023,
      "components": 7024,
      "gentle": 7025,
      "enforc": 7026,
      "frederick": 7027,
      "occasionally": 7028,
      "liverpool": 7029,
      "switzerland": 7030,
      "97": 7031,
      "boss": 7032,
      "benn": 7033,
      "denn": 7034,
      "dna": 7035,
      "ein": 7036,
      "eag": 7037,
      "gur": 7038,
      "gem": 7039,
      "gif": 7040,
      "gear": 7041,
      "gib": 7042,
      "hob": 7043,
      "hole": 7044,
      "ion": 7045,
      "kay": 7046,
      "kum": 7047,
      "kings": 7048,
      "lingu": 7049,
      "mes": 7050,
      "mack": 7051,
      "pd": 7052,
      "pand": 7053,
      "pup": 7054,
      "session": 7055,
      "tyr": 7056,
      "vas": 7057,
      "yor": 7058,
      "##cr": 7059,
      "##rum": 7060,
      "##mi": 7061,
      "##ais": 7062,
      "##ti": 7063,
      "##iop": 7064,
      "##los": 7065,
      "##fo": 7066,
      "##folk": 7067,
      "##sky": 7068,
      "##ski": 7069,
      "##gest": 7070,
      "##gie": 7071,
      "##ports": 7072,
      "##zi": 7073,
      "##wick": 7074,
      "##46": 7075,
      "inhib": 7076,
      "##oust": 7077,
      "##real": 7078,
      "##amer": 7079,
      "stab": 7080,
      "stages": 7081,
      "forget": 7082,
      "rein": 7083,
      "alice": 7084,
      "beast": 7085,
      "anx": 7086,
      "##ista": 7087,
      "##ighth": 7088,
      "trick": 7089,
      "##illo": 7090,
      "unless": 7091,
      "##sea": 7092,
      "##oker": 7093,
      "grown": 7094,
      "amph": 7095,
      "aftern": 7096,
      "manga": 7097,
      "adapt": 7098,
      "intim": 7099,
      "resigned": 7100,
      "##kshire": 7101,
      "drunk": 7102,
      "##ensions": 7103,
      "assess": 7104,
      "finishing": 7105,
      "warning": 7106,
      "synt": 7107,
      "endemic": 7108,
      "aired": 7109,
      "##attan": 7110,
      "repair": 7111,
      "metro": 7112,
      "##emble": 7113,
      "switch": 7114,
      "releg": 7115,
      "moder": 7116,
      "110": 7117,
      "signs": 7118,
      "landsc": 7119,
      "austrian": 7120,
      "portland": 7121,
      "angry": 7122,
      "organisation": 7123,
      "membership": 7124,
      "talent": 7125,
      "advance": 7126,
      "standings": 7127,
      "entitled": 7128,
      "occas": 7129,
      "visited": 7130,
      "technique": 7131,
      "snake": 7132,
      "proced": 7133,
      "entering": 7134,
      "departure": 7135,
      "heavily": 7136,
      "fundament": 7137,
      "civilian": 7138,
      "penins": 7139,
      "duties": 7140,
      "alexand": 7141,
      "capture": 7142,
      "galax": 7143,
      "registered": 7144,
      "suspic": 7145,
      "subjects": 7146,
      "alien": 7147,
      "turkey": 7148,
      "drinking": 7149,
      "raymond": 7150,
      "charlotte": 7151,
      "scientific": 7152,
      "summary": 7153,
      "islamic": 7154,
      "delivered": 7155,
      "covid": 7156,
      "nepal": 7157,
      "vertical": 7158,
      "maximum": 7159,
      "concluded": 7160,
      "##optera": 7161,
      "##laimed": 7162,
      "warriors": 7163,
      "nervous": 7164,
      "lebanon": 7165,
      "alcohol": 7166,
      "expansion": 7167,
      "66": 7168,
      "aqu": 7169,
      "bin": 7170,
      "fm": 7171,
      "gest": 7172,
      "gates": 7173,
      "lyn": 7174,
      "mol": 7175,
      "ride": 7176,
      "sic": 7177,
      "uc": 7178,
      "vik": 7179,
      "wav": 7180,
      "wang": 7181,
      "yam": 7182,
      "##een": 7183,
      "##rane": 7184,
      "##oa": 7185,
      "##mo": 7186,
      "##bra": 7187,
      "##fc": 7188,
      "##die": 7189,
      "##sion": 7190,
      "##key": 7191,
      "##wart": 7192,
      "##esc": 7193,
      "##eno": 7194,
      "##iture": 7195,
      "##omar": 7196,
      "thai": 7197,
      "##aced": 7198,
      "##etr": 7199,
      "##ige": 7200,
      "heir": 7201,
      "items": 7202,
      "frustr": 7203,
      "friday": 7204,
      "##uses": 7205,
      "yout": 7206,
      "dee": 7207,
      "deploy": 7208,
      "neat": 7209,
      "arc": 7210,
      "leaf": 7211,
      "##uster": 7212,
      "worst": 7213,
      "agree": 7214,
      "##away": 7215,
      "##inder": 7216,
      "teach": 7217,
      "coat": 7218,
      "willing": 7219,
      "##ahn": 7220,
      "assumed": 7221,
      "regulation": 7222,
      "undert": 7223,
      "underground": 7224,
      "##wealth": 7225,
      "justin": 7226,
      "symph": 7227,
      "studying": 7228,
      "slave": 7229,
      "maur": 7230,
      "singing": 7231,
      "belg": 7232,
      "reput": 7233,
      "emer": 7234,
      "emigr": 7235,
      "movies": 7236,
      "movements": 7237,
      "chec": 7238,
      "kevin": 7239,
      "oldest": 7240,
      "divisions": 7241,
      "extension": 7242,
      "restored": 7243,
      "confused": 7244,
      "putting": 7245,
      "palest": 7246,
      "##heless": 7247,
      "chapel": 7248,
      "soldier": 7249,
      "approached": 7250,
      "stores": 7251,
      "commonwealth": 7252,
      "madrid": 7253,
      "lowest": 7254,
      "uncredited": 7255,
      "keys": 7256,
      "hamlet": 7257,
      "fifty": 7258,
      "micro": 7259,
      "victorian": 7260,
      "innov": 7261,
      "jews": 7262,
      "wondered": 7263,
      "certainly": 7264,
      "literary": 7265,
      "ivan": 7266,
      "apartment": 7267,
      "odd": 7268,
      "drugs": 7269,
      "hundreds": 7270,
      "prayer": 7271,
      "vessel": 7272,
      "bradley": 7273,
      "moths": 7274,
      "habitat": 7275,
      "taste": 7276,
      "extremely": 7277,
      "behaviour": 7278,
      "scheduled": 7279,
      "prefecture": 7280,
      "benjamin": 7281,
      "enforcement": 7282,
      "82": 7283,
      "89": 7284,
      "bj": 7285,
      "dies": 7286,
      "foss": 7287,
      "jet": 7288,
      "kath": 7289,
      "lion": 7290,
      "liz": 7291,
      "mt": 7292,
      "pow": 7293,
      "pages": 7294,
      "rams": 7295,
      "sut": 7296,
      "yu": 7297,
      "##rh": 7298,
      "##rimin": 7299,
      "##iber": 7300,
      "##su": 7301,
      "##zer": 7302,
      "##xual": 7303,
      "##hent": 7304,
      "##orters": 7305,
      "##arked": 7306,
      "inqu": 7307,
      "##ication": 7308,
      "##omon": 7309,
      "##acent": 7310,
      "forty": 7311,
      "hend": 7312,
      "repres": 7313,
      "##ema": 7314,
      "atm": 7315,
      "neur": 7316,
      "trump": 7317,
      "bru": 7318,
      "brick": 7319,
      "##ieved": 7320,
      "meets": 7321,
      "intent": 7322,
      "crimes": 7323,
      "recru": 7324,
      "pert": 7325,
      "jobs": 7326,
      "streng": 7327,
      "displ": 7328,
      "disney": 7329,
      "decisions": 7330,
      "prel": 7331,
      "##ahan": 7332,
      "assign": 7333,
      "regulations": 7334,
      "eleven": 7335,
      "seeking": 7336,
      "consp": 7337,
      "interests": 7338,
      "terry": 7339,
      "##atherine": 7340,
      "capable": 7341,
      "##enne": 7342,
      "persons": 7343,
      "monaster": 7344,
      "barn": 7345,
      "##oyd": 7346,
      "depos": 7347,
      "1930s": 7348,
      "corp": 7349,
      "austria": 7350,
      "passes": 7351,
      "basin": 7352,
      "moh": 7353,
      "moore": 7354,
      "occurs": 7355,
      "confront": 7356,
      "voices": 7357,
      "describe": 7358,
      "tourist": 7359,
      "factor": 7360,
      "morgan": 7361,
      "statue": 7362,
      "broadway": 7363,
      "survive": 7364,
      "russell": 7365,
      "woods": 7366,
      "romania": 7367,
      "derived": 7368,
      "##borough": 7369,
      "##going": 7370,
      "flora": 7371,
      "venues": 7372,
      "imprison": 7373,
      "employment": 7374,
      "rhyth": 7375,
      "determine": 7376,
      "louisiana": 7377,
      "ferr": 7378,
      "beneath": 7379,
      "bishops": 7380,
      "##worth": 7381,
      "terminus": 7382,
      "customers": 7383,
      "##hetic": 7384,
      "bacter": 7385,
      "dynam": 7386,
      "nickn": 7387,
      "pierre": 7388,
      "collaboration": 7389,
      "mechanical": 7390,
      "aspects": 7391,
      "achieve": 7392,
      "achieved": 7393,
      "kilomet": 7394,
      "mathematics": 7395,
      "chess": 7396,
      "songwriter": 7397,
      "accompanied": 7398,
      "rescue": 7399,
      "afghanistan": 7400,
      "chicken": 7401,
      "margaret": 7402,
      "archbishop": 7403,
      "stomach": 7404,
      "represents": 7405,
      "03": 7406,
      "04": 7407,
      "aur": 7408,
      "ayr": 7409,
      "bub": 7410,
      "bone": 7411,
      "cum": 7412,
      "dh": 7413,
      "diction": 7414,
      "danish": 7415,
      "furn": 7416,
      "gw": 7417,
      "gill": 7418,
      "ja": 7419,
      "jaw": 7420,
      "lith": 7421,
      "lank": 7422,
      "math": 7423,
      "mull": 7424,
      "nel": 7425,
      "og": 7426,
      "ss": 7427,
      "sas": 7428,
      "sul": 7429,
      "ted": 7430,
      "torn": 7431,
      "wine": 7432,
      "xi": 7433,
      "##eo": 7434,
      "##car": 7435,
      "##oom": 7436,
      "##mers": 7437,
      "##ties": 7438,
      "##iat": 7439,
      "##bound": 7440,
      "##feld": 7441,
      "##fare": 7442,
      "##hard": 7443,
      "##point": 7444,
      "##jab": 7445,
      "##eding": 7446,
      "##eni": 7447,
      "##eline": 7448,
      "##ami": 7449,
      "##olis": 7450,
      "##ecution": 7451,
      "stairs": 7452,
      "##idad": 7453,
      "##imb": 7454,
      "franch": 7455,
      "##osaur": 7456,
      "chand": 7457,
      "##oda": 7458,
      "##odox": 7459,
      "seb": 7460,
      "##apy": 7461,
      "tries": 7462,
      "trained": 7463,
      "arn": 7464,
      "exceed": 7465,
      "brah": 7466,
      "cliff": 7467,
      "meg": 7468,
      "compact": 7469,
      "intention": 7470,
      "crash": 7471,
      "cruel": 7472,
      "acoust": 7473,
      "roots": 7474,
      "timber": 7475,
      "##aware": 7476,
      "users": 7477,
      "driven": 7478,
      "blues": 7479,
      "stress": 7480,
      "norfolk": 7481,
      "buff": 7482,
      "guar": 7483,
      "formally": 7484,
      "attached": 7485,
      "poems": 7486,
      "publisher": 7487,
      "##anning": 7488,
      "medium": 7489,
      "##ennial": 7490,
      "##ribute": 7491,
      "provision": 7492,
      "monster": 7493,
      "##inae": 7494,
      "companion": 7495,
      "auth": 7496,
      "classification": 7497,
      "passion": 7498,
      "passengers": 7499,
      "continuing": 7500,
      "##aea": 7501,
      "organic": 7502,
      "values": 7503,
      "##yll": 7504,
      "designs": 7505,
      "designer": 7506,
      "legacy": 7507,
      "midfield": 7508,
      "advoc": 7509,
      "advice": 7510,
      "eastman": 7511,
      "parking": 7512,
      "1888": 7513,
      "oppon": 7514,
      "experiences": 7515,
      "##ycle": 7516,
      "equal": 7517,
      "sentence": 7518,
      "1872": 7519,
      "hearts": 7520,
      "select": 7521,
      "photograph": 7522,
      "argued": 7523,
      "messages": 7524,
      "commissioner": 7525,
      "influenced": 7526,
      "krist": 7527,
      "jerry": 7528,
      "franklin": 7529,
      "separated": 7530,
      "marcus": 7531,
      "hungary": 7532,
      "absor": 7533,
      "minority": 7534,
      "legislation": 7535,
      "injured": 7536,
      "diego": 7537,
      "tasks": 7538,
      "patrol": 7539,
      "iceland": 7540,
      "suffr": 7541,
      "philippine": 7542,
      "newspapers": 7543,
      "hindu": 7544,
      "jimmy": 7545,
      "ranking": 7546,
      "serbia": 7547,
      "arranged": 7548,
      "kennedy": 7549,
      "component": 7550,
      "fantasy": 7551,
      "obviously": 7552,
      "isaac": 7553,
      "interpretation": 7554,
      "tongue": 7555,
      "ernest": 7556,
      "portrait": 7557,
      "sanctuary": 7558,
      "pakistan": 7559,
      "sustain": 7560,
      "phenom": 7561,
      "manhattan": 7562,
      "shangh": 7563,
      "convinced": 7564,
      "hurricane": 7565,
      "6th": 7566,
      "87": 7567,
      "bold": 7568,
      "dil": 7569,
      "dvd": 7570,
      "fib": 7571,
      "fool": 7572,
      "faster": 7573,
      "gn": 7574,
      "gap": 7575,
      "gulf": 7576,
      "hir": 7577,
      "kan": 7578,
      "lions": 7579,
      "mud": 7580,
      "nak": 7581,
      "pm": 7582,
      "pill": 7583,
      "rar": 7584,
      "sult": 7585,
      "tired": 7586,
      "vs": 7587,
      "vast": 7588,
      "voy": 7589,
      "wool": 7590,
      "witch": 7591,
      "##eing": 7592,
      "##coming": 7593,
      "##rome": 7594,
      "##rical": 7595,
      "##mate": 7596,
      "##uits": 7597,
      "##50": 7598,
      "##iology": 7599,
      "##bal": 7600,
      "##kov": 7601,
      "##onation": 7602,
      "##alf": 7603,
      "##itely": 7604,
      "##asi": 7605,
      "##rees": 7606,
      "##entially": 7607,
      "##lee": 7608,
      "##ads": 7609,
      "##aco": 7610,
      "stup": 7611,
      "##urr": 7612,
      "aside": 7613,
      "fruit": 7614,
      "chase": 7615,
      "chocol": 7616,
      "conce": 7617,
      "sees": 7618,
      "tri": 7619,
      "trains": 7620,
      "shock": 7621,
      "shift": 7622,
      "plain": 7623,
      "##ello": 7624,
      "##ogs": 7625,
      "clock": 7626,
      "cloud": 7627,
      "criter": 7628,
      "crazy": 7629,
      "commit": 7630,
      "perce": 7631,
      "blank": 7632,
      "centers": 7633,
      "fled": 7634,
      "deck": 7635,
      "declined": 7636,
      "##issions": 7637,
      "ears": 7638,
      "formal": 7639,
      "smoke": 7640,
      "ministers": 7641,
      "synd": 7642,
      "##ontin": 7643,
      "surg": 7644,
      "submar": 7645,
      "capit": 7646,
      "wanting": 7647,
      "leads": 7648,
      "depending": 7649,
      "##otta": 7650,
      "corrid": 7651,
      "corresp": 7652,
      "reduce": 7653,
      "lawrence": 7654,
      "appearing": 7655,
      "calc": 7656,
      "calm": 7657,
      "starred": 7658,
      "patient": 7659,
      "detect": 7660,
      "radar": 7661,
      "competitive": 7662,
      "peters": 7663,
      "1898": 7664,
      "1894": 7665,
      "feelings": 7666,
      "explan": 7667,
      "commanded": 7668,
      "helping": 7669,
      "superior": 7670,
      "limits": 7671,
      "affect": 7672,
      "attacked": 7673,
      "economics": 7674,
      "survived": 7675,
      "selection": 7676,
      "hugh": 7677,
      "involving": 7678,
      "circum": 7679,
      "ruler": 7680,
      "robot": 7681,
      "florence": 7682,
      "closely": 7683,
      "debuted": 7684,
      "duo": 7685,
      "battery": 7686,
      "punjab": 7687,
      "hoping": 7688,
      "memories": 7689,
      "saved": 7690,
      "##know": 7691,
      "sprint": 7692,
      "teleph": 7693,
      "rolled": 7694,
      "voting": 7695,
      "bottle": 7696,
      "##rupted": 7697,
      "bachel": 7698,
      "installation": 7699,
      "nymph": 7700,
      "favorite": 7701,
      "attendance": 7702,
      "disappoint": 7703,
      "stanford": 7704,
      "ottawa": 7705,
      "benefit": 7706,
      "gonna": 7707,
      "patterns": 7708,
      "nazi": 7709,
      "virtual": 7710,
      "pleasure": 7711,
      "ukrainian": 7712,
      "expedition": 7713,
      "wagner": 7714,
      "semifinals": 7715,
      "deleg": 7716,
      "impossible": 7717,
      "afternoon": 7718,
      "belgium": 7719,
      "guarant": 7720,
      "correspond": 7721,
      "61": 7722,
      "83": 7723,
      "96": 7724,
      "aa": 7725,
      "bak": 7726,
      "cash": 7727,
      "dol": 7728,
      "duc": 7729,
      "diet": 7730,
      "eu": 7731,
      "eating": 7732,
      "fet": 7733,
      "fate": 7734,
      "fisher": 7735,
      "gm": 7736,
      "gast": 7737,
      "hi": 7738,
      "hast": 7739,
      "mate": 7740,
      "pc": 7741,
      "pi": 7742,
      "pse": 7743,
      "push": 7744,
      "rocks": 7745,
      "sier": 7746,
      "sessions": 7747,
      "tum": 7748,
      "ue": 7749,
      "wim": 7750,
      "wik": 7751,
      "##rant": 7752,
      "##rick": 7753,
      "##rons": 7754,
      "##mic": 7755,
      "##26": 7756,
      "##bot": 7757,
      "##dp": 7758,
      "##dish": 7759,
      "##drew": 7760,
      "##hy": 7761,
      "##32": 7762,
      "##zo": 7763,
      "##41": 7764,
      "##onian": 7765,
      "##organ": 7766,
      "##atra": 7767,
      "##ishes": 7768,
      "stones": 7769,
      "##owa": 7770,
      "prosp": 7771,
      "frances": 7772,
      "withdrew": 7773,
      "##using": 7774,
      "##ulu": 7775,
      "hispan": 7776,
      "##umi": 7777,
      "shaw": 7778,
      "##ipe": 7779,
      "bruce": 7780,
      "griff": 7781,
      "##oga": 7782,
      "clay": 7783,
      "2000s": 7784,
      "abuse": 7785,
      "1815": 7786,
      "manchester": 7787,
      "scor": 7788,
      "cryst": 7789,
      "acknow": 7790,
      "fired": 7791,
      "canc": 7792,
      "feels": 7793,
      "agencies": 7794,
      "##aceae": 7795,
      "carbon": 7796,
      "incumb": 7797,
      "afterwards": 7798,
      "permission": 7799,
      "offensive": 7800,
      "##enses": 7801,
      "induct": 7802,
      "edited": 7803,
      "secured": 7804,
      "counties": 7805,
      "greece": 7806,
      "underst": 7807,
      "smell": 7808,
      "engaged": 7809,
      "linked": 7810,
      "worldwide": 7811,
      "distant": 7812,
      "disturb": 7813,
      "locomot": 7814,
      "##erted": 7815,
      "##ertain": 7816,
      "retained": 7817,
      "maid": 7818,
      "airlines": 7819,
      "handle": 7820,
      "genera": 7821,
      "northwestern": 7822,
      "emma": 7823,
      "muhammad": 7824,
      "listening": 7825,
      "revers": 7826,
      "profit": 7827,
      "14th": 7828,
      "propag": 7829,
      "juan": 7830,
      "raise": 7831,
      "profession": 7832,
      "christopher": 7833,
      "1903": 7834,
      "volt": 7835,
      "romantic": 7836,
      "discrimin": 7837,
      "possession": 7838,
      "1896": 7839,
      "1884": 7840,
      "confeder": 7841,
      "replace": 7842,
      "biology": 7843,
      "bihar": 7844,
      "libert": 7845,
      "enterpr": 7846,
      "grandson": 7847,
      "researchers": 7848,
      "bigger": 7849,
      "holiday": 7850,
      "furthermore": 7851,
      "racial": 7852,
      "mck": 7853,
      "1000": 7854,
      "casual": 7855,
      "crossed": 7856,
      "##ounced": 7857,
      "claiming": 7858,
      "defeating": 7859,
      "committed": 7860,
      "physics": 7861,
      "1859": 7862,
      "journalists": 7863,
      "stronger": 7864,
      "choose": 7865,
      "fifa": 7866,
      "montreal": 7867,
      "ordinary": 7868,
      "lux": 7869,
      "luis": 7870,
      "dreams": 7871,
      "cycle": 7872,
      "colonial": 7873,
      "lucy": 7874,
      "rolling": 7875,
      "burning": 7876,
      "apprent": 7877,
      "celebrated": 7878,
      "scientists": 7879,
      "premiered": 7880,
      "jonathan": 7881,
      "unsucc": 7882,
      "adjacent": 7883,
      "laughing": 7884,
      "elevation": 7885,
      "unfortun": 7886,
      "roger": 7887,
      "substant": 7888,
      "ownership": 7889,
      "praised": 7890,
      "reconst": 7891,
      "illustrated": 7892,
      "##otype": 7893,
      "recommend": 7894,
      "robinson": 7895,
      "absolute": 7896,
      "wounded": 7897,
      "satisf": 7898,
      "innocent": 7899,
      "cavalry": 7900,
      "amendment": 7901,
      "perspective": 7902,
      "youtube": 7903,
      "atmosp": 7904,
      "shanghai": 7905,
      "unsuccess": 7906,
      "67": 7907,
      "7th": 7908,
      "92": 7909,
      "bom": 7910,
      "core": 7911,
      "cair": 7912,
      "cyl": 7913,
      "dall": 7914,
      "dread": 7915,
      "eighth": 7916,
      "fed": 7917,
      "fitz": 7918,
      "gift": 7919,
      "hamp": 7920,
      "lists": 7921,
      "ml": 7922,
      "nu": 7923,
      "pour": 7924,
      "qur": 7925,
      "rip": 7926,
      "rico": 7927,
      "tut": 7928,
      "tort": 7929,
      "tube": 7930,
      "tiny": 7931,
      "vit": 7932,
      "vlad": 7933,
      "yo": 7934,
      "##cm": 7935,
      "##rod": 7936,
      "##oen": 7937,
      "##mates": 7938,
      "##aig": 7939,
      "##nie": 7940,
      "##uable": 7941,
      "##iere": 7942,
      "##bel": 7943,
      "##du": 7944,
      "##inate": 7945,
      "##oning": 7946,
      "##esar": 7947,
      "##aning": 7948,
      "##isations": 7949,
      "##ishers": 7950,
      "##asia": 7951,
      "andy": 7952,
      "toy": 7953,
      "##icon": 7954,
      "##lev": 7955,
      "##sters": 7956,
      "##aca": 7957,
      "##olid": 7958,
      "##eta": 7959,
      "stal": 7960,
      "stere": 7961,
      "##igible": 7962,
      "##ayan": 7963,
      "##ivation": 7964,
      "##ivia": 7965,
      "revel": 7966,
      "##ching": 7967,
      "fres": 7968,
      "##avan": 7969,
      "confer": 7970,
      "trials": 7971,
      "sha": 7972,
      "exha": 7973,
      "##berts": 7974,
      "spin": 7975,
      "coup": 7976,
      "notably": 7977,
      "weird": 7978,
      "marry": 7979,
      "margin": 7980,
      "resol": 7981,
      "ages": 7982,
      "myth": 7983,
      "user": 7984,
      "eval": 7985,
      "filed": 7986,
      "##ails": 7987,
      "poly": 7988,
      "greet": 7989,
      "guil": 7990,
      "attending": 7991,
      "terrible": 7992,
      "subc": 7993,
      "filmography": 7994,
      "invent": 7995,
      "##encing": 7996,
      "barcel": 7997,
      "cheng": 7998,
      "150": 7999,
      "milk": 8000,
      "signal": 8001,
      "autonom": 8002,
      "autumn": 8003,
      "controll": 8004,
      "runners": 8005,
      "divor": 8006,
      "trend": 8007,
      "austin": 8008,
      "ourselves": 8009,
      "lasted": 8010,
      "nearest": 8011,
      "realize": 8012,
      "mills": 8013,
      "useful": 8014,
      "delhi": 8015,
      "archive": 8016,
      "1901": 8017,
      "compete": 8018,
      "youngest": 8019,
      "facebook": 8020,
      "1895": 8021,
      "1899": 8022,
      "burg": 8023,
      "1883": 8024,
      "victim": 8025,
      "##box": 8026,
      "temporary": 8027,
      "morris": 8028,
      "videos": 8029,
      "damaged": 8030,
      "affected": 8031,
      "meetings": 8032,
      "socialist": 8033,
      "denmark": 8034,
      "##iece": 8035,
      "hyd": 8036,
      "taxonomy": 8037,
      "venue": 8038,
      "closing": 8039,
      "replacement": 8040,
      "breakfast": 8041,
      "elsewhere": 8042,
      "answers": 8043,
      "suggests": 8044,
      "magazines": 8045,
      "athletes": 8046,
      "mirror": 8047,
      "significantly": 8048,
      "detailed": 8049,
      "scientist": 8050,
      "begun": 8051,
      "##cules": 8052,
      "adopt": 8053,
      "##what": 8054,
      "selling": 8055,
      "brooklyn": 8056,
      "wonderful": 8057,
      "apparent": 8058,
      "struggle": 8059,
      "ottoman": 8060,
      "fucking": 8061,
      "adults": 8062,
      "aimed": 8063,
      "eldest": 8064,
      "brigade": 8065,
      "fixed": 8066,
      "sculpture": 8067,
      "reprod": 8068,
      "welcome": 8069,
      "rejected": 8070,
      "siege": 8071,
      "merchant": 8072,
      "shouted": 8073,
      "grammar": 8074,
      "paintings": 8075,
      "dismissed": 8076,
      "negotiations": 8077,
      "bengal": 8078,
      "scheme": 8079,
      "gospel": 8080,
      "depression": 8081,
      "taiwan": 8082,
      "paused": 8083,
      "opinion": 8084,
      "maritime": 8085,
      "chancell": 8086,
      "galaxy": 8087,
      "monastery": 8088,
      "pseud": 8089,
      "barcelona": 8090,
      "91": 8091,
      "9th": 8092,
      "bench": 8093,
      "cec": 8094,
      "cot": 8095,
      "cave": 8096,
      "fuel": 8097,
      "fitted": 8098,
      "fulf": 8099,
      "gam": 8100,
      "gut": 8101,
      "hier": 8102,
      "hale": 8103,
      "hull": 8104,
      "hitting": 8105,
      "kap": 8106,
      "lib": 8107,
      "mold": 8108,
      "pyr": 8109,
      "rut": 8110,
      "rag": 8111,
      "rushing": 8112,
      "sigh": 8113,
      "sib": 8114,
      "tap": 8115,
      "tact": 8116,
      "wides": 8117,
      "yan": 8118,
      "##eas": 8119,
      "##cing": 8120,
      "##aud": 8121,
      "##uces": 8122,
      "##bid": 8123,
      "##bus": 8124,
      "##burn": 8125,
      "##boy": 8126,
      "##lop": 8127,
      "##pers": 8128,
      "##pread": 8129,
      "##34": 8130,
      "##37": 8131,
      "##zig": 8132,
      "##aters": 8133,
      "##esis": 8134,
      "insc": 8135,
      "##itter": 8136,
      "##itud": 8137,
      "##itched": 8138,
      "##omp": 8139,
      "##eli": 8140,
      "##leep": 8141,
      "##acher": 8142,
      "ster": 8143,
      "##utely": 8144,
      "asc": 8145,
      "asleep": 8146,
      "whist": 8147,
      "##ods": 8148,
      "##agues": 8149,
      "shoes": 8150,
      "plates": 8151,
      "brut": 8152,
      "gross": 8153,
      "graham": 8154,
      "manor": 8155,
      "manage": 8156,
      "manual": 8157,
      "manuel": 8158,
      "adela": 8159,
      "fee": 8160,
      "aggress": 8161,
      "uss": 8162,
      "soil": 8163,
      "sole": 8164,
      "drove": 8165,
      "contested": 8166,
      "##achi": 8167,
      "blond": 8168,
      "apple": 8169,
      "relay": 8170,
      "indigen": 8171,
      "##olds": 8172,
      "boats": 8173,
      "##place": 8174,
      "format": 8175,
      "distributed": 8176,
      "transmission": 8177,
      "##grad": 8178,
      "carefully": 8179,
      "suppress": 8180,
      "sket": 8181,
      "adding": 8182,
      "cheek": 8183,
      "159": 8184,
      "mainten": 8185,
      "demograph": 8186,
      "childhood": 8187,
      "signing": 8188,
      "helen": 8189,
      "operator": 8190,
      "origins": 8191,
      "trem": 8192,
      "missions": 8193,
      "governments": 8194,
      "##ylum": 8195,
      "senators": 8196,
      "archives": 8197,
      "advent": 8198,
      "bands": 8199,
      "associations": 8200,
      "speaker": 8201,
      "malay": 8202,
      "faces": 8203,
      "parker": 8204,
      "1881": 8205,
      "successor": 8206,
      "##ophone": 8207,
      "expert": 8208,
      "grandfather": 8209,
      "biggest": 8210,
      "vienna": 8211,
      "moments": 8212,
      "qualify": 8213,
      "exclud": 8214,
      "soundtr": 8215,
      "diocese": 8216,
      "survival": 8217,
      "1864": 8218,
      "turb": 8219,
      "storage": 8220,
      "uncertain": 8221,
      "appointment": 8222,
      "identify": 8223,
      "susan": 8224,
      "democracy": 8225,
      "taxa": 8226,
      "penalty": 8227,
      "copy": 8228,
      "mixing": 8229,
      "rebell": 8230,
      "graduating": 8231,
      "deeply": 8232,
      "replacing": 8233,
      "borders": 8234,
      "sensitive": 8235,
      "nominations": 8236,
      "predict": 8237,
      "carlos": 8238,
      "actresses": 8239,
      "optim": 8240,
      "psychological": 8241,
      "ninete": 8242,
      "azerb": 8243,
      "belonging": 8244,
      "##hua": 8245,
      "alleg": 8246,
      "freshman": 8247,
      "wrestlers": 8248,
      "license": 8249,
      "carrier": 8250,
      "essential": 8251,
      "comparison": 8252,
      "##donald": 8253,
      "gaze": 8254,
      "segment": 8255,
      "agricultural": 8256,
      "rabb": 8257,
      "rabbi": 8258,
      "substit": 8259,
      "electrical": 8260,
      "astron": 8261,
      "marshall": 8262,
      "variable": 8263,
      "pitched": 8264,
      "obvious": 8265,
      "lunch": 8266,
      "encountered": 8267,
      "bernard": 8268,
      "quantum": 8269,
      "monday": 8270,
      "strikes": 8271,
      "colombia": 8272,
      "licensed": 8273,
      "abraham": 8274,
      "orthodox": 8275,
      "wilhelm": 8276,
      "adapted": 8277,
      "goddess": 8278,
      "fundamental": 8279,
      "dictionary": 8280,
      "chocolate": 8281,
      "bachelor": 8282,
      "uefa": 8283,
      "widespread": 8284,
      "adelaide": 8285,
      "maintenance": 8286,
      "demographics": 8287,
      "azerbai": 8288,
      "06": 8289,
      "93": 8290,
      "aber": 8291,
      "aunt": 8292,
      "buc": 8293,
      "bio": 8294,
      "bert": 8295,
      "cod": 8296,
      "cree": 8297,
      "cinc": 8298,
      "cards": 8299,
      "dates": 8300,
      "dining": 8301,
      "fancy": 8302,
      "foster": 8303,
      "gand": 8304,
      "gaining": 8305,
      "hed": 8306,
      "honey": 8307,
      "jos": 8308,
      "lying": 8309,
      "luke": 8310,
      "mak": 8311,
      "mint": 8312,
      "rig": 8313,
      "rates": 8314,
      "tak": 8315,
      "yield": 8316,
      "##ciation": 8317,
      "##rix": 8318,
      "##oi": 8319,
      "##mg": 8320,
      "##master": 8321,
      "##86": 8322,
      "##lings": 8323,
      "##fgh": 8324,
      "##gl": 8325,
      "##vement": 8326,
      "##erie": 8327,
      "##inus": 8328,
      "##orf": 8329,
      "##enia": 8330,
      "##alous": 8331,
      "##iters": 8332,
      "##rets": 8333,
      "##aments": 8334,
      "##olo": 8335,
      "##ecca": 8336,
      "alc": 8337,
      "bend": 8338,
      "beam": 8339,
      "beating": 8340,
      "chi": 8341,
      "##uli": 8342,
      "##vere": 8343,
      "seattle": 8344,
      "triang": 8345,
      "unn": 8346,
      "unus": 8347,
      "shed": 8348,
      "sheep": 8349,
      "##berry": 8350,
      "brings": 8351,
      "gren": 8352,
      "grim": 8353,
      "worn": 8354,
      "clou": 8355,
      "abu": 8356,
      "compass": 8357,
      "upgr": 8358,
      "##quet": 8359,
      "colored": 8360,
      "##izz": 8361,
      "knife": 8362,
      "knees": 8363,
      "serie": 8364,
      "roberts": 8365,
      "usual": 8366,
      "drivers": 8367,
      "sail": 8368,
      "offs": 8369,
      "indoor": 8370,
      "joining": 8371,
      "##ilda": 8372,
      "##intend": 8373,
      "somewhat": 8374,
      "themes": 8375,
      "guild": 8376,
      "forming": 8377,
      "genre": 8378,
      "engines": 8379,
      "##ruption": 8380,
      "beth": 8381,
      "pole": 8382,
      "instant": 8383,
      "subur": 8384,
      "transact": 8385,
      "glen": 8386,
      "emil": 8387,
      "bars": 8388,
      "supplies": 8389,
      "junction": 8390,
      "chrom": 8391,
      "operates": 8392,
      "calcul": 8393,
      "humor": 8394,
      "prophet": 8395,
      "veget": 8396,
      "greatly": 8397,
      "valuable": 8398,
      "arrival": 8399,
      "delic": 8400,
      "historians": 8401,
      "protests": 8402,
      "producers": 8403,
      "antic": 8404,
      "solomon": 8405,
      "programme": 8406,
      "convicted": 8407,
      "1880": 8408,
      "technologies": 8409,
      "honors": 8410,
      "error": 8411,
      "##chell": 8412,
      "easier": 8413,
      "tempor": 8414,
      "debate": 8415,
      "moral": 8416,
      "devon": 8417,
      "additionally": 8418,
      "##after": 8419,
      "amongst": 8420,
      "requires": 8421,
      "excess": 8422,
      "diagn": 8423,
      "pressed": 8424,
      "richmond": 8425,
      "1876": 8426,
      "munich": 8427,
      "murd": 8428,
      "romanian": 8429,
      "infin": 8430,
      "huh": 8431,
      "libraries": 8432,
      "keyboards": 8433,
      "festivals": 8434,
      "doctors": 8435,
      "fifteen": 8436,
      "maryland": 8437,
      "illness": 8438,
      "micros": 8439,
      "softly": 8440,
      "christianity": 8441,
      "squadrons": 8442,
      "batter": 8443,
      "gardens": 8444,
      "accounts": 8445,
      "guardian": 8446,
      "##defgh": 8447,
      "shooters": 8448,
      "predecess": 8449,
      "criticized": 8450,
      "pupp": 8451,
      "score0": 8452,
      "corporate": 8453,
      "emerged": 8454,
      "##innati": 8455,
      "industries": 8456,
      "automatically": 8457,
      "ensure": 8458,
      "commented": 8459,
      "pursuit": 8460,
      "hypot": 8461,
      "hypothes": 8462,
      "cypr": 8463,
      "summit": 8464,
      "random": 8465,
      "buddhist": 8466,
      "progressive": 8467,
      "interactive": 8468,
      "repeat": 8469,
      "benefits": 8470,
      "cooperation": 8471,
      "rafvr": 8472,
      "coalition": 8473,
      "demonstrated": 8474,
      "increasingly": 8475,
      "gathered": 8476,
      "nigeria": 8477,
      "columns": 8478,
      "wisdom": 8479,
      "renew": 8480,
      "shifted": 8481,
      "abcdefgh": 8482,
      "portrayed": 8483,
      "subsidi": 8484,
      "nicholas": 8485,
      "surgeon": 8486,
      "clerk": 8487,
      "phrase": 8488,
      "referend": 8489,
      "lodge": 8490,
      "hudson": 8491,
      "gymnastics": 8492,
      "illegal": 8493,
      "ambassador": 8494,
      "amphib": 8495,
      "nelson": 8496,
      "sebast": 8497,
      "acoustic": 8498,
      "sultan": 8499,
      "circumst": 8500,
      "understood": 8501,
      "chancellor": 8502,
      "soundtrack": 8503,
      "cincinnati": 8504,
      "86": 8505,
      "8th": 8506,
      "94": 8507,
      "a3": 8508,
      "cork": 8509,
      "danc": 8510,
      "hack": 8511,
      "lgb": 8512,
      "mast": 8513,
      "mik": 8514,
      "nascar": 8515,
      "pel": 8516,
      "pine": 8517,
      "raw": 8518,
      "rio": 8519,
      "sink": 8520,
      "tat": 8521,
      "viv": 8522,
      "wore": 8523,
      "welf": 8524,
      "##oop": 8525,
      "##mother": 8526,
      "##minton": 8527,
      "##ture": 8528,
      "##nal": 8529,
      "##nik": 8530,
      "##bir": 8531,
      "##bird": 8532,
      "##hal": 8533,
      "##hara": 8534,
      "##sed": 8535,
      "##van": 8536,
      "##yers": 8537,
      "##pc": 8538,
      "##py": 8539,
      "##oria": 8540,
      "##enh": 8541,
      "##arn": 8542,
      "##isible": 8543,
      "tox": 8544,
      "tool": 8545,
      "##aman": 8546,
      "##acles": 8547,
      "##acco": 8548,
      "stem": 8549,
      "asylum": 8550,
      "prad": 8551,
      "pride": 8552,
      "franz": 8553,
      "##emen": 8554,
      "##usaria": 8555,
      "##ulous": 8556,
      "##odies": 8557,
      "deut": 8558,
      "neut": 8559,
      "trim": 8560,
      "##illon": 8561,
      "##ifer": 8562,
      "unt": 8563,
      "##arta": 8564,
      "##iants": 8565,
      "spur": 8566,
      "grip": 8567,
      "butt": 8568,
      "afford": 8569,
      "complic": 8570,
      "allied": 8571,
      "manusc": 8572,
      "marvel": 8573,
      "recre": 8574,
      "colony": 8575,
      "knocked": 8576,
      "myster": 8577,
      "blocks": 8578,
      "eve": 8579,
      "approp": 8580,
      "whenever": 8581,
      "indicated": 8582,
      "flesh": 8583,
      "flights": 8584,
      "strict": 8585,
      "struck": 8586,
      "quart": 8587,
      "parent": 8588,
      "parad": 8589,
      "decline": 8590,
      "preced": 8591,
      "assum": 8592,
      "assets": 8593,
      "wrapped": 8594,
      "attributed": 8595,
      "intercept": 8596,
      "##othy": 8597,
      "download": 8598,
      "downtown": 8599,
      "retain": 8600,
      "instance": 8601,
      "106": 8602,
      "10th": 8603,
      "donated": 8604,
      "##ieth": 8605,
      "creatures": 8606,
      "persu": 8607,
      "emily": 8608,
      "birming": 8609,
      "monarch": 8610,
      "armor": 8611,
      "brew": 8612,
      "##otted": 8613,
      "155": 8614,
      "construct": 8615,
      "demolished": 8616,
      "steep": 8617,
      "operational": 8618,
      "##190": 8619,
      "continental": 8620,
      "continuous": 8621,
      "avo": 8622,
      "bush": 8623,
      "millions": 8624,
      "delaware": 8625,
      "completion": 8626,
      "volley": 8627,
      "silk": 8628,
      "rounds": 8629,
      "posted": 8630,
      "halls": 8631,
      "honour": 8632,
      "doorway": 8633,
      "##iveness": 8634,
      "businessman": 8635,
      "supervis": 8636,
      "satell": 8637,
      "networks": 8638,
      "chapters": 8639,
      "murphy": 8640,
      "judges": 8641,
      "1865": 8642,
      "1868": 8643,
      "surely": 8644,
      "collins": 8645,
      "travelled": 8646,
      "identification": 8647,
      "activist": 8648,
      "involvement": 8649,
      "##iminary": 8650,
      "ruling": 8651,
      "happening": 8652,
      "animated": 8653,
      "boxers": 8654,
      "cannon": 8655,
      "peaked": 8656,
      "ethiop": 8657,
      "absence": 8658,
      "frequent": 8659,
      "swept": 8660,
      "nomination": 8661,
      "climbed": 8662,
      "breathing": 8663,
      "oslo": 8664,
      "laser": 8665,
      "counsel": 8666,
      "measures": 8667,
      "hunting": 8668,
      "ensemble": 8669,
      "ratio": 8670,
      "kissed": 8671,
      "overseas": 8672,
      "seeds": 8673,
      "dragons": 8674,
      "false": 8675,
      "cruise": 8676,
      "rogers": 8677,
      "prosecut": 8678,
      "sample": 8679,
      "sheriff": 8680,
      "gonz": 8681,
      "##million": 8682,
      "framework": 8683,
      "pirates": 8684,
      "archaeological": 8685,
      "minimum": 8686,
      "slovak": 8687,
      "fellowship": 8688,
      "playoffs": 8689,
      "horizont": 8690,
      "disappeared": 8691,
      "eugene": 8692,
      "tobacco": 8693,
      "clothing": 8694,
      "compilation": 8695,
      "horses": 8696,
      "nashville": 8697,
      "peninsula": 8698,
      "pertusaria": 8699,
      "preliminary": 8700,
      "franchise": 8701,
      "stupid": 8702,
      "nymphon": 8703,
      "guilty": 8704,
      "indigenous": 8705,
      "referendum": 8706,
      "lgbt": 8707,
      "welfare": 8708,
      "birmingham": 8709,
      "ace": 8710,
      "auck": 8711,
      "aims": 8712,
      "banned": 8713,
      "ced": 8714,
      "codes": 8715,
      "dent": 8716,
      "dock": 8717,
      "eco": 8718,
      "gau": 8719,
      "goth": 8720,
      "gotten": 8721,
      "hd": 8722,
      "hence": 8723,
      "hipp": 8724,
      "hiding": 8725,
      "jab": 8726,
      "jama": 8727,
      "lift": 8728,
      "mum": 8729,
      "nem": 8730,
      "nbc": 8731,
      "ou": 8732,
      "pairs": 8733,
      "ral": 8734,
      "rook": 8735,
      "roth": 8736,
      "ridge": 8737,
      "saving": 8738,
      "tiss": 8739,
      "tons": 8740,
      "vil": 8741,
      "vul": 8742,
      "vand": 8743,
      "yah": 8744,
      "##ea": 8745,
      "##eon": 8746,
      "##rs": 8747,
      "##rik": 8748,
      "##mons": 8749,
      "##88": 8750,
      "##born": 8751,
      "##face": 8752,
      "##sd": 8753,
      "##pher": 8754,
      "##erning": 8755,
      "##orph": 8756,
      "##anim": 8757,
      "##ario": 8758,
      "##isk": 8759,
      "toss": 8760,
      "##icus": 8761,
      "##rehens": 8762,
      "##elia": 8763,
      "##urst": 8764,
      "##idal": 8765,
      "heb": 8766,
      "hew": 8767,
      "reyn": 8768,
      "isab": 8769,
      "fract": 8770,
      "chat": 8771,
      "chip": 8772,
      "chairs": 8773,
      "##ando": 8774,
      "##agr": 8775,
      "##agement": 8776,
      "##estab": 8777,
      "neil": 8778,
      "unw": 8779,
      "##ovich": 8780,
      "plains": 8781,
      "leather": 8782,
      "##ipur": 8783,
      "spider": 8784,
      "##oki": 8785,
      "enh": 8786,
      "##ogle": 8787,
      "##pping": 8788,
      "amster": 8789,
      "abroad": 8790,
      "afc": 8791,
      "manila": 8792,
      "marl": 8793,
      "scores": 8794,
      "seriously": 8795,
      "pend": 8796,
      "##inding": 8797,
      "peru": 8798,
      "coinc": 8799,
      "coached": 8800,
      "evangel": 8801,
      "##osexual": 8802,
      "filip": 8803,
      "straw": 8804,
      "##inted": 8805,
      "editions": 8806,
      "eddie": 8807,
      "##roid": 8808,
      "guer": 8809,
      "throw": 8810,
      "smiling": 8811,
      "##azar": 8812,
      "whereas": 8813,
      "interchange": 8814,
      "slipped": 8815,
      "charter": 8816,
      "highlight": 8817,
      "##anni": 8818,
      "belle": 8819,
      "persian": 8820,
      "##encer": 8821,
      "obtain": 8822,
      "bread": 8823,
      "mode": 8824,
      "nova": 8825,
      "revenue": 8826,
      "variant": 8827,
      "vegas": 8828,
      "angle": 8829,
      "respective": 8830,
      "talks": 8831,
      "promise": 8832,
      "promised": 8833,
      "christine": 8834,
      "associate": 8835,
      "powered": 8836,
      "behalf": 8837,
      "##uka": 8838,
      "finds": 8839,
      "burst": 8840,
      "confidence": 8841,
      "palm": 8842,
      "##boat": 8843,
      "connor": 8844,
      "trading": 8845,
      "loop": 8846,
      "judg": 8847,
      "badly": 8848,
      "badminton": 8849,
      "gradually": 8850,
      "##189": 8851,
      "##itarian": 8852,
      "photos": 8853,
      "francois": 8854,
      "ruled": 8855,
      "merely": 8856,
      "screamed": 8857,
      "argue": 8858,
      "architectural": 8859,
      "hydr": 8860,
      "cutting": 8861,
      "democrat": 8862,
      "1857": 8863,
      "1849": 8864,
      "copper": 8865,
      "escaped": 8866,
      "degrees": 8867,
      "sandy": 8868,
      "wondering": 8869,
      "machines": 8870,
      "normally": 8871,
      "wildlife": 8872,
      "flew": 8873,
      "fairly": 8874,
      "ceo": 8875,
      "dimension": 8876,
      "suspended": 8877,
      "springs": 8878,
      "mutual": 8879,
      "globe": 8880,
      "concerts": 8881,
      "lesb": 8882,
      "immediate": 8883,
      "approval": 8884,
      "boundary": 8885,
      "rodr": 8886,
      "jacques": 8887,
      "citizen": 8888,
      "imagine": 8889,
      "purchase": 8890,
      "hayes": 8891,
      "restaurants": 8892,
      "percentage": 8893,
      "printed": 8894,
      "sequence": 8895,
      "descendants": 8896,
      "sponsored": 8897,
      "implemented": 8898,
      "mitchell": 8899,
      "nikol": 8900,
      "##iciency": 8901,
      "intersection": 8902,
      "preparation": 8903,
      "##onymous": 8904,
      "##keeper": 8905,
      "bulgarian": 8906,
      "recipients": 8907,
      "instrumental": 8908,
      "clinical": 8909,
      "lancaster": 8910,
      "ancestry": 8911,
      "accommodate": 8912,
      "datab": 8913,
      "wreck": 8914,
      "executed": 8915,
      "croat": 8916,
      "penguin": 8917,
      "distinguished": 8918,
      "nevada": 8919,
      "loyal": 8920,
      "inhabit": 8921,
      "subdiv": 8922,
      "yorkshire": 8923,
      "sierra": 8924,
      "crystal": 8925,
      "acknowled": 8926,
      "unfortunately": 8927,
      "anticip": 8928,
      "auckland": 8929,
      "amsterdam": 8930,
      "77": 8931,
      "800": 8932,
      "cort": 8933,
      "cbs": 8934,
      "dl": 8935,
      "dart": 8936,
      "dated": 8937,
      "dors": 8938,
      "dying": 8939,
      "dawn": 8940,
      "fill": 8941,
      "fond": 8942,
      "gle": 8943,
      "hood": 8944,
      "iowa": 8945,
      "jen": 8946,
      "jail": 8947,
      "jake": 8948,
      "kle": 8949,
      "lc": 8950,
      "len": 8951,
      "ng": 8952,
      "nun": 8953,
      "nurs": 8954,
      "naked": 8955,
      "ov": 8956,
      "ober": 8957,
      "pall": 8958,
      "patt": 8959,
      "pump": 8960,
      "rah": 8961,
      "rating": 8962,
      "tale": 8963,
      "tina": 8964,
      "vin": 8965,
      "venture": 8966,
      "yale": 8967,
      "zur": 8968,
      "##corn": 8969,
      "##most": 8970,
      "##tra": 8971,
      "##theless": 8972,
      "##night": 8973,
      "##nell": 8974,
      "##bar": 8975,
      "##bie": 8976,
      "##borne": 8977,
      "##lip": 8978,
      "##hs": 8979,
      "##haw": 8980,
      "##sy": 8981,
      "##gro": 8982,
      "##gets": 8983,
      "##pear": 8984,
      "##zing": 8985,
      "##whel": 8986,
      "##43": 8987,
      "##inson": 8988,
      "##oric": 8989,
      "##orig": 8990,
      "##atched": 8991,
      "infer": 8992,
      "ingr": 8993,
      "##itars": 8994,
      "##aska": 8995,
      "##eling": 8996,
      "##stad": 8997,
      "##amus": 8998,
      "##ampton": 8999,
      "##olor": 9000,
      "##etes": 9001,
      "##igar": 9002,
      "##igger": 9003,
      "##ivan": 9004,
      "##terly": 9005,
      "aless": 9006,
      "prove": 9007,
      "pruss": 9008,
      "proud": 9009,
      "##imir": 9010,
      "##ationally": 9011,
      "froz": 9012,
      "withdr": 9013,
      "atom": 9014,
      "athens": 9015,
      "##oshi": 9016,
      "##istical": 9017,
      "##agger": 9018,
      "congreg": 9019,
      "seal": 9020,
      "##ocation": 9021,
      "neo": 9022,
      "##ighters": 9023,
      "tram": 9024,
      "##abad": 9025,
      "##aks": 9026,
      "plastic": 9027,
      "orn": 9028,
      "oral": 9029,
      "##iped": 9030,
      "sugar": 9031,
      "spending": 9032,
      "bras": 9033,
      "couch": 9034,
      "grain": 9035,
      "button": 9036,
      "meal": 9037,
      "##isha": 9038,
      "compound": 9039,
      "comprehens": 9040,
      "outer": 9041,
      "output": 9042,
      "cried": 9043,
      "twins": 9044,
      "##ateral": 9045,
      "##ensively": 9046,
      "quit": 9047,
      "prohib": 9048,
      "backed": 9049,
      "secular": 9050,
      "pregn": 9051,
      "##roe": 9052,
      "##issa": 9053,
      "earning": 9054,
      "throwing": 9055,
      "anywhere": 9056,
      "##aza": 9057,
      "consolid": 9058,
      "worlds": 9059,
      "##ixon": 9060,
      "##othr": 9061,
      "distract": 9062,
      "dayton": 9063,
      "slid": 9064,
      "charges": 9065,
      "##etta": 9066,
      "retail": 9067,
      "ende": 9068,
      "elli": 9069,
      "109": 9070,
      "transc": 9071,
      "providence": 9072,
      "johnston": 9073,
      "moves": 9074,
      "monitor": 9075,
      "careful": 9076,
      "barry": 9077,
      "armoured": 9078,
      "depicted": 9079,
      "annually": 9080,
      "breat": 9081,
      "curious": 9082,
      "chel": 9083,
      "cheer": 9084,
      "milan": 9085,
      "walt": 9086,
      "exposed": 9087,
      "demons": 9088,
      "lawyers": 9089,
      "receives": 9090,
      "concerning": 9091,
      "patric": 9092,
      "patience": 9093,
      "farms": 9094,
      "##flies": 9095,
      "##aneous": 9096,
      "villa": 9097,
      "nevertheless": 9098,
      "stationed": 9099,
      "250": 9100,
      "visible": 9101,
      "versus": 9102,
      "err": 9103,
      "painted": 9104,
      "palomar": 9105,
      "toured": 9106,
      "touring": 9107,
      "commanders": 9108,
      "helps": 9109,
      "moroc": 9110,
      "funny": 9111,
      "rachel": 9112,
      "ranks": 9113,
      "informed": 9114,
      "routine": 9115,
      "1863": 9116,
      "1860": 9117,
      "characterized": 9118,
      "assisted": 9119,
      "hurling": 9120,
      "documents": 9121,
      "multip": 9122,
      "popularity": 9123,
      "architects": 9124,
      "democrats": 9125,
      "strongly": 9126,
      "venet": 9127,
      "rebel": 9128,
      "figured": 9129,
      "##ambig": 9130,
      "paying": 9131,
      "inspector": 9132,
      "inspiration": 9133,
      "campaigns": 9134,
      "influential": 9135,
      "computers": 9136,
      "liberty": 9137,
      "athlete": 9138,
      "sensation": 9139,
      "doctorate": 9140,
      "novelist": 9141,
      "lifetime": 9142,
      "ferry": 9143,
      "colonies": 9144,
      "legislature": 9145,
      "comedian": 9146,
      "suspected": 9147,
      "osaka": 9148,
      "dogs": 9149,
      "embass": 9150,
      "purposes": 9151,
      "reactions": 9152,
      "automob": 9153,
      "mistake": 9154,
      "examination": 9155,
      "anthrop": 9156,
      "heroes": 9157,
      "sleeping": 9158,
      "reflected": 9159,
      "revolutionary": 9160,
      "prepare": 9161,
      "extreme": 9162,
      "feeding": 9163,
      "definitely": 9164,
      "instruments": 9165,
      "harrison": 9166,
      "experimental": 9167,
      "requirements": 9168,
      "botan": 9169,
      "protein": 9170,
      "proteins": 9171,
      "argentine": 9172,
      "argentina": 9173,
      "celest": 9174,
      "wealthy": 9175,
      "nomine": 9176,
      "advertising": 9177,
      "affiliated": 9178,
      "rapidly": 9179,
      "achievement": 9180,
      "exercise": 9181,
      "controversy": 9182,
      "boulev": 9183,
      "armenian": 9184,
      "admiral": 9185,
      "territorial": 9186,
      "indonesia": 9187,
      "intellectual": 9188,
      "embrace": 9189,
      "principles": 9190,
      "oscar": 9191,
      "shakespear": 9192,
      "synthes": 9193,
      "maurice": 9194,
      "reputation": 9195,
      "arnold": 9196,
      "cruelty": 9197,
      "hispanic": 9198,
      "autonomous": 9199,
      "subsidiary": 9200,
      "pradesh": 9201,
      "frozen": 9202,
      "boulevard": 9203,
      "shakespeare": 9204,
      "02": 9205,
      "aar": 9206,
      "dame": 9207,
      "dual": 9208,
      "dirt": 9209,
      "ease": 9210,
      "ety": 9211,
      "fang": 9212,
      "gust": 9213,
      "gael": 9214,
      "heter": 9215,
      "kw": 9216,
      "kun": 9217,
      "kate": 9218,
      "laughter": 9219,
      "lucky": 9220,
      "mild": 9221,
      "mood": 9222,
      "mps": 9223,
      "nba": 9224,
      "pub": 9225,
      "pitc": 9226,
      "pounds": 9227,
      "rs": 9228,
      "rak": 9229,
      "sans": 9230,
      "sull": 9231,
      "sized": 9232,
      "tig": 9233,
      "tamp": 9234,
      "tension": 9235,
      "ua": 9236,
      "##oque": 9237,
      "##mud": 9238,
      "##51": 9239,
      "##bul": 9240,
      "##fish": 9241,
      "##yo": 9242,
      "##post": 9243,
[...]
